#ifndef SINE_MODEL_H
#define SINE_MODEL_H


unsigned int sine_model_len = 2532;
unsigned char sine_model[] = {
 0x08, 0x00, 0x00, 0x00, 0x54, 0x46, 0x4c, 0x33, 0x32, 0xfa, 0xff, 0xff,
  0x03, 0x00, 0x00, 0x00, 0xb4, 0x09, 0x00, 0x00, 0xb8, 0x05, 0x00, 0x00,
  0xa0, 0x05, 0x00, 0x00, 0x04, 0x00, 0x00, 0x00, 0x0b, 0x00, 0x00, 0x00,
  0x90, 0x05, 0x00, 0x00, 0x88, 0x05, 0x00, 0x00, 0x38, 0x05, 0x00, 0x00,
  0xe0, 0x04, 0x00, 0x00, 0xcc, 0x04, 0x00, 0x00, 0x7c, 0x04, 0x00, 0x00,
  0x6c, 0x00, 0x00, 0x00, 0x1c, 0x00, 0x00, 0x00, 0x14, 0x00, 0x00, 0x00,
  0x0c, 0x00, 0x00, 0x00, 0x04, 0x00, 0x00, 0x00, 0xb0, 0xf6, 0xff, 0xff,
  0xb4, 0xf6, 0xff, 0xff, 0xb8, 0xf6, 0xff, 0xff, 0xfe, 0xfa, 0xff, 0xff,
  0x04, 0x00, 0x00, 0x00, 0x40, 0x00, 0x00, 0x00, 0xd8, 0x22, 0xa4, 0x3e,
  0xf1, 0x5b, 0xcc, 0x3f, 0xa0, 0x12, 0xdc, 0x3e, 0xec, 0xa6, 0x89, 0xbd,
  0x8f, 0x83, 0x7e, 0x3f, 0xfc, 0x6e, 0x95, 0x3f, 0x40, 0x76, 0xac, 0x3c,
  0x3c, 0x8f, 0xd9, 0xbe, 0x6a, 0x60, 0x04, 0x3f, 0x04, 0xee, 0x5d, 0xbf,
  0x6b, 0x5c, 0x82, 0x3f, 0x6a, 0x9d, 0x74, 0x3f, 0xda, 0x47, 0xa6, 0xbe,
  0x8e, 0x3c, 0x5c, 0x3f, 0x3e, 0x6c, 0x12, 0xbe, 0xf8, 0xa5, 0x9e, 0x3e,
  0x4a, 0xfb, 0xff, 0xff, 0x04, 0x00, 0x00, 0x00, 0x00, 0x04, 0x00, 0x00,
  0xee, 0xdc, 0x4c, 0x3e, 0x79, 0x12, 0xcd, 0xbe, 0x97, 0xbd, 0xc7, 0xbe,
  0xab, 0xb5, 0xd1, 0x3e, 0x45, 0x0f, 0x9f, 0xbe, 0x92, 0xa5, 0x19, 0x3e,
  0x62, 0xb4, 0x0e, 0x3e, 0x28, 0xc5, 0x19, 0xbe, 0x01, 0x8a, 0x7a, 0xbe,
  0x43, 0x85, 0xae, 0x3e, 0xd8, 0x3d, 0x63, 0x3d, 0x30, 0xaf, 0x6f, 0xbd,
  0x5e, 0xa8, 0xaa, 0xbe, 0x9d, 0x6b, 0xa0, 0x3e, 0x9c, 0x34, 0xa8, 0xbe,
  0x86, 0x54, 0xd5, 0xbe, 0xf7, 0xb7, 0x82, 0xbe, 0xb5, 0x0a, 0xd2, 0x3c,
  0x2d, 0x6c, 0xbf, 0xbe, 0x1e, 0x88, 0x87, 0x3e, 0x2e, 0x9c, 0x96, 0xbe,
  0x1e, 0xfe, 0x19, 0x3f, 0x53, 0x16, 0xab, 0x3e, 0xe4, 0x23, 0x4f, 0xbe,
  0x79, 0x4b, 0x83, 0x3e, 0x8c, 0xce, 0x54, 0x3e, 0x8b, 0x99, 0x4e, 0xbe,
  0x0f, 0x64, 0x0d, 0xbf, 0x10, 0x42, 0x52, 0x3d, 0x0a, 0xeb, 0xb2, 0x3d,
  0xb8, 0x0d, 0xa5, 0xbe, 0xaa, 0xdf, 0x08, 0x3f, 0xac, 0xa4, 0xa0, 0x3d,
  0x8c, 0xf7, 0x3d, 0xbe, 0x56, 0x5f, 0x88, 0xbe, 0xbf, 0x3c, 0x87, 0xbe,
  0xdf, 0x15, 0x5d, 0xbe, 0x80, 0xcf, 0xca, 0x3c, 0x35, 0xdb, 0xc6, 0x3e,
  0x48, 0xe9, 0xf5, 0xbd, 0xb3, 0x9f, 0x81, 0x3e, 0xe4, 0xc5, 0xcb, 0x3d,
  0xc0, 0x0a, 0x0c, 0x3d, 0x40, 0x9b, 0xef, 0x3c, 0x8e, 0xa7, 0x53, 0x3e,
  0x11, 0xbd, 0xcd, 0xbe, 0xe0, 0xc0, 0x7e, 0xbc, 0xe7, 0xc5, 0xdc, 0x3e,
  0xc6, 0xd8, 0x37, 0x3e, 0x88, 0x5c, 0x3d, 0xbe, 0xf3, 0x3e, 0x39, 0x3e,
  0xd9, 0xcd, 0x78, 0x3e, 0x5b, 0x5f, 0xd4, 0xbe, 0xb1, 0x15, 0x21, 0xbe,
  0xc9, 0x88, 0x97, 0x3e, 0xa1, 0x8d, 0xc1, 0xbe, 0x8a, 0x8c, 0x70, 0x3e,
  0x22, 0x16, 0x29, 0x3e, 0x94, 0xd5, 0x8e, 0x3e, 0x73, 0xe6, 0x9a, 0x3e,
  0x3f, 0x95, 0x58, 0xbe, 0x57, 0xd8, 0x9d, 0x3e, 0x9b, 0xe8, 0xc2, 0x3e,
  0xb3, 0x31, 0x94, 0xbd, 0x66, 0xb6, 0x34, 0xbe, 0xfe, 0xd0, 0xb1, 0xbd,
  0xb6, 0x24, 0x95, 0xbe, 0x1b, 0x89, 0xd3, 0xbd, 0x2a, 0x90, 0x6b, 0x3e,
  0xf8, 0xa7, 0x21, 0x3e, 0x45, 0x69, 0xaa, 0x3e, 0x77, 0x94, 0x53, 0x3e,
  0x65, 0xad, 0x66, 0x3e, 0x74, 0x11, 0xd5, 0x3e, 0xba, 0x71, 0xf2, 0x3c,
  0x61, 0x55, 0x07, 0xbe, 0xb0, 0xf4, 0x98, 0xbd, 0xf9, 0x8b, 0x28, 0x3e,
  0xe4, 0x03, 0x4e, 0xbe, 0xa1, 0x34, 0x25, 0xbe, 0x86, 0x0e, 0x38, 0xbe,
  0x0e, 0xcd, 0x88, 0x3e, 0x47, 0xb4, 0x02, 0xbf, 0x10, 0x31, 0x86, 0xbc,
  0x96, 0x25, 0x90, 0xbe, 0xb0, 0xf1, 0xe9, 0x3e, 0xfe, 0x35, 0x2d, 0x3e,
  0x69, 0x66, 0x0f, 0x3e, 0xda, 0x3a, 0x69, 0x3d, 0x73, 0x4d, 0x02, 0x3c,
  0x5d, 0x63, 0xa1, 0x3e, 0x72, 0x46, 0x0c, 0xbf, 0x60, 0x38, 0x1f, 0xbc,
  0xd1, 0x1c, 0xd4, 0x3e, 0xd1, 0x5e, 0xc0, 0x3e, 0x7b, 0x60, 0x49, 0xbd,
  0xfa, 0xde, 0xd5, 0xbe, 0x44, 0x63, 0x8b, 0xbe, 0x80, 0x0a, 0x01, 0xbc,
  0x26, 0x57, 0x36, 0xbe, 0xb3, 0xf7, 0xc2, 0x3e, 0x33, 0x82, 0xd7, 0x3e,
  0xd5, 0x92, 0xae, 0x3e, 0x39, 0x3a, 0xd9, 0x3e, 0x08, 0x8c, 0xbc, 0xbe,
  0xa0, 0xc4, 0x80, 0x3c, 0x6c, 0x04, 0xdb, 0x3d, 0xe3, 0xed, 0x8c, 0xbe,
  0x5e, 0x5a, 0x0c, 0xbe, 0x3e, 0x84, 0x79, 0x3e, 0x0d, 0x4e, 0x3d, 0xbe,
  0x2d, 0xe8, 0xca, 0xbe, 0x7d, 0x80, 0xcb, 0xbe, 0xd3, 0x00, 0xf9, 0x3e,
  0xba, 0xa1, 0xaa, 0xbe, 0x3d, 0x66, 0x7c, 0xbd, 0xc0, 0x9d, 0x5c, 0xbd,
  0x90, 0x75, 0x95, 0x3e, 0xde, 0xdb, 0x32, 0x3e, 0x0f, 0x2b, 0xff, 0x3e,
  0xec, 0xda, 0x2a, 0x3e, 0x8f, 0x07, 0xdf, 0x3e, 0x05, 0xf9, 0xa8, 0x3e,
  0x76, 0x6a, 0x6a, 0xbe, 0x0c, 0x37, 0xfb, 0x3d, 0xa1, 0xba, 0x38, 0xbe,
  0x3d, 0xac, 0x56, 0xbe, 0xe7, 0x45, 0x7a, 0xbe, 0xd2, 0x53, 0x8a, 0xbe,
  0xe7, 0xb0, 0xd7, 0xbd, 0xb4, 0x33, 0x01, 0x3f, 0x9f, 0xd3, 0xd5, 0x3e,
  0x14, 0x40, 0xc7, 0x3d, 0xac, 0x05, 0xd4, 0x3c, 0xf9, 0xe7, 0xd4, 0x3e,
  0x36, 0x17, 0xa6, 0xbe, 0x02, 0x7b, 0xfd, 0xbe, 0x67, 0xbc, 0x80, 0xba,
  0x71, 0x27, 0xea, 0x3e, 0x25, 0x77, 0xaa, 0xbd, 0x28, 0x24, 0x89, 0xbe,
  0x39, 0x85, 0x58, 0xbe, 0x37, 0xb0, 0xaa, 0x3e, 0x3f, 0x04, 0xc9, 0xbe,
  0x8c, 0xdb, 0x7d, 0xbe, 0x71, 0x6e, 0x74, 0xbe, 0xa7, 0xf3, 0xf6, 0x3e,
  0xbd, 0x03, 0x72, 0xbf, 0x46, 0x69, 0xb0, 0xbe, 0x0b, 0xd4, 0xf3, 0xbe,
  0x00, 0x30, 0xe4, 0xbc, 0x3e, 0x5a, 0x1a, 0xbf, 0xbd, 0x72, 0x6a, 0xbe,
  0xfd, 0x8a, 0x19, 0x3d, 0xce, 0x67, 0x0d, 0x3f, 0x0c, 0xda, 0xa6, 0x3d,
  0x45, 0x12, 0x82, 0x3e, 0x5d, 0x8b, 0xba, 0x3e, 0x20, 0xdd, 0x57, 0x3c,
  0x82, 0x63, 0xb3, 0xbe, 0xa6, 0xa2, 0x0c, 0x3e, 0x39, 0xd9, 0x9d, 0xbd,
  0xe2, 0x3e, 0x0a, 0xbf, 0x88, 0x98, 0xc8, 0x3e, 0x19, 0xad, 0x67, 0xbe,
  0x25, 0xf5, 0xea, 0x3e, 0xe8, 0xe5, 0xfa, 0xbd, 0xb2, 0xbb, 0x3f, 0x3e,
  0xd2, 0x91, 0x93, 0xbe, 0x9e, 0x6b, 0x69, 0xbe, 0x78, 0x65, 0x8b, 0xbe,
  0xfc, 0xaa, 0x1f, 0x3e, 0x25, 0xf0, 0x59, 0xbe, 0x00, 0x13, 0xd2, 0xbc,
  0xc4, 0xcc, 0xd5, 0x3d, 0xf5, 0x6c, 0xef, 0x3e, 0x82, 0x27, 0x5b, 0xbe,
  0x08, 0xe0, 0x19, 0x3e, 0x7a, 0x35, 0xba, 0x3e, 0x43, 0x9e, 0xa9, 0xbe,
  0x9a, 0x6d, 0x4b, 0x3e, 0x7d, 0x94, 0x2a, 0xbf, 0x60, 0x06, 0x27, 0x3d,
  0x95, 0xb9, 0x6e, 0x3e, 0x45, 0x07, 0xa1, 0xbe, 0xf2, 0x7a, 0x35, 0xbe,
  0x08, 0xdd, 0x80, 0x3e, 0xf1, 0x55, 0x93, 0x3e, 0x7f, 0xfd, 0x5e, 0xbe,
  0x45, 0xc9, 0x94, 0xbd, 0xde, 0x6a, 0x44, 0xbe, 0xa3, 0xf1, 0xfb, 0xbe,
  0xb8, 0xd7, 0x6b, 0x3d, 0x1e, 0xc2, 0x1c, 0xbe, 0x7c, 0x68, 0x98, 0xbe,
  0x67, 0x79, 0xa3, 0xbe, 0xc7, 0xd5, 0xce, 0x3e, 0x6c, 0x7b, 0xa1, 0xbe,
  0xd0, 0xf9, 0x5a, 0xbd, 0xbb, 0xfe, 0xa5, 0x3e, 0x0c, 0x59, 0x5c, 0x3e,
  0xa7, 0x15, 0xa5, 0xbe, 0xcd, 0xea, 0xa8, 0x3e, 0x1d, 0xd1, 0xd2, 0xbd,
  0xa3, 0x61, 0xdd, 0xbe, 0xdf, 0x3a, 0x90, 0x3e, 0x39, 0x3a, 0xba, 0x3e,
  0x78, 0x1b, 0x32, 0x3d, 0xda, 0x86, 0x83, 0xbe, 0x5e, 0x4d, 0xa8, 0x3e,
  0x5d, 0xa9, 0x00, 0x3e, 0xb4, 0x3a, 0x57, 0x3e, 0x00, 0xce, 0xdb, 0xbb,
  0x2b, 0x30, 0xb0, 0xbe, 0x3c, 0x9c, 0x80, 0xbd, 0x26, 0x96, 0xb2, 0x3d,
  0x67, 0x81, 0x02, 0xbf, 0x49, 0x12, 0xba, 0xbe, 0xee, 0x5d, 0xc9, 0x3d,
  0xb1, 0xaa, 0x31, 0x3e, 0x48, 0x49, 0x00, 0xbe, 0xc5, 0x33, 0xba, 0x3e,
  0x84, 0x24, 0x8a, 0x3d, 0xb9, 0xe0, 0x46, 0xbf, 0xe6, 0x8c, 0x59, 0x3e,
  0xe5, 0x89, 0xd6, 0xbe, 0x64, 0x29, 0xd9, 0xbe, 0x4c, 0x03, 0xf0, 0x3d,
  0x19, 0xa7, 0xb2, 0xbe, 0xa0, 0xd8, 0x45, 0xbc, 0x8a, 0x8d, 0x86, 0xbe,
  0xa5, 0x13, 0x91, 0x3e, 0x7c, 0x95, 0x87, 0x3d, 0x42, 0x37, 0x44, 0xbe,
  0xac, 0x33, 0xc0, 0x3d, 0x37, 0xbd, 0x8a, 0x3e, 0x92, 0xb4, 0x5d, 0xbe,
  0xab, 0x5c, 0xab, 0x3e, 0x40, 0x79, 0x3c, 0x3c, 0xf3, 0xa1, 0xdd, 0xbe,
  0xb0, 0xad, 0x36, 0x3d, 0x22, 0x12, 0xcd, 0xbe, 0x80, 0x60, 0xa2, 0x3d,
  0x32, 0xdb, 0x08, 0x3e, 0x7f, 0x51, 0xaa, 0xbe, 0x8a, 0xd2, 0xb7, 0xbe,
  0x54, 0x51, 0xf4, 0x3d, 0xa4, 0xa9, 0x3e, 0xbb, 0xdf, 0x7b, 0xee, 0x3d,
  0x51, 0x07, 0xb4, 0x3e, 0xfa, 0xd3, 0x58, 0x3e, 0xb9, 0x61, 0xda, 0xbd,
  0x1c, 0x37, 0x9c, 0x3d, 0x41, 0x1b, 0x59, 0x3e, 0x50, 0x43, 0xc0, 0xbd,
  0x83, 0x2e, 0x45, 0xbe, 0x56, 0xff, 0xff, 0xff, 0x04, 0x00, 0x00, 0x00,
  0x40, 0x00, 0x00, 0x00, 0x78, 0xfc, 0x33, 0xbe, 0x06, 0x79, 0xbb, 0x3e,
  0x2c, 0x68, 0x8f, 0x3d, 0x06, 0x7d, 0xaf, 0x3e, 0x78, 0x8e, 0xd8, 0xbe,
  0x75, 0xe9, 0x91, 0x3e, 0xa4, 0x24, 0xa0, 0xbe, 0xa6, 0x77, 0xe2, 0x3e,
  0x17, 0x0c, 0xe3, 0x3e, 0xd5, 0xa3, 0xbd, 0x3e, 0x05, 0xe4, 0xe1, 0x3d,
  0x16, 0x7b, 0xa0, 0x3d, 0x90, 0x05, 0xb2, 0xbd, 0x1e, 0x66, 0xd8, 0x3b,
  0xb0, 0xc9, 0x44, 0xbd, 0xf7, 0xc4, 0x2c, 0x3e, 0xa2, 0xff, 0xff, 0xff,
  0x04, 0x00, 0x00, 0x00, 0x04, 0x00, 0x00, 0x00, 0x8f, 0x1a, 0x3f, 0xbe,
  0xb2, 0xff, 0xff, 0xff, 0x04, 0x00, 0x00, 0x00, 0x40, 0x00, 0x00, 0x00,
  0x00, 0x00, 0x00, 0x00, 0xee, 0x8b, 0x02, 0xbf, 0x00, 0x00, 0x00, 0x00,
  0x12, 0x54, 0xa7, 0x3e, 0x75, 0x9c, 0xd2, 0xbe, 0x1e, 0x6a, 0xe5, 0xbe,
  0x00, 0x00, 0x00, 0x00, 0x79, 0x89, 0x1d, 0xbd, 0xbb, 0x06, 0x1f, 0x3e,
  0x0b, 0xe4, 0x15, 0x3f, 0x5b, 0xb1, 0x95, 0xbe, 0x77, 0x06, 0x52, 0x3e,
  0xa5, 0xfa, 0xcb, 0xbb, 0x2d, 0x13, 0x59, 0x3e, 0x00, 0x00, 0x00, 0x00,
  0x56, 0x97, 0x9e, 0xbd, 0x00, 0x00, 0x06, 0x00, 0x08, 0x00, 0x04, 0x00,
  0x06, 0x00, 0x00, 0x00, 0x04, 0x00, 0x00, 0x00, 0x40, 0x00, 0x00, 0x00,
  0x00, 0x00, 0x00, 0x00, 0xa6, 0x14, 0x9c, 0xbc, 0x6a, 0x83, 0x08, 0x3f,
  0xf2, 0x64, 0x11, 0xbd, 0x00, 0x00, 0x00, 0x00, 0xf3, 0x2e, 0x29, 0xbf,
  0x00, 0x00, 0x00, 0x00, 0xf3, 0x10, 0x2e, 0xbb, 0x2c, 0x02, 0x06, 0xbf,
  0xcf, 0x3a, 0xe0, 0xbe, 0xc0, 0xba, 0x95, 0x3e, 0x6e, 0xf2, 0x04, 0x3f,
  0x00, 0x00, 0x00, 0x00, 0xdf, 0xc0, 0x30, 0xbd, 0x00, 0x00, 0x00, 0x00,
  0x7c, 0x50, 0xf3, 0xbe, 0x10, 0xfc, 0xff, 0xff, 0x14, 0xfc, 0xff, 0xff,
  0x0f, 0x00, 0x00, 0x00, 0x4d, 0x4c, 0x49, 0x52, 0x20, 0x43, 0x6f, 0x6e,
  0x76, 0x65, 0x72, 0x74, 0x65, 0x64, 0x2e, 0x00, 0x01, 0x00, 0x00, 0x00,
  0x14, 0x00, 0x00, 0x00, 0x00, 0x00, 0x0e, 0x00, 0x18, 0x00, 0x04, 0x00,
  0x08, 0x00, 0x0c, 0x00, 0x10, 0x00, 0x14, 0x00, 0x0e, 0x00, 0x00, 0x00,
  0x00, 0x01, 0x00, 0x00, 0xf4, 0x00, 0x00, 0x00, 0xe8, 0x00, 0x00, 0x00,
  0x14, 0x00, 0x00, 0x00, 0x04, 0x00, 0x00, 0x00, 0x04, 0x00, 0x00, 0x00,
  0x6d, 0x61, 0x69, 0x6e, 0x00, 0x00, 0x00, 0x00, 0x03, 0x00, 0x00, 0x00,
  0x90, 0x00, 0x00, 0x00, 0x48, 0x00, 0x00, 0x00, 0x04, 0x00, 0x00, 0x00,
  0xce, 0xff, 0xff, 0xff, 0x00, 0x00, 0x00, 0x08, 0x18, 0x00, 0x00, 0x00,
  0x0c, 0x00, 0x00, 0x00, 0x04, 0x00, 0x00, 0x00, 0x8c, 0xfc, 0xff, 0xff,
  0x01, 0x00, 0x00, 0x00, 0x09, 0x00, 0x00, 0x00, 0x03, 0x00, 0x00, 0x00,
  0x08, 0x00, 0x00, 0x00, 0x06, 0x00, 0x00, 0x00, 0x03, 0x00, 0x00, 0x00,
  0x00, 0x00, 0x0e, 0x00, 0x14, 0x00, 0x00, 0x00, 0x08, 0x00, 0x0c, 0x00,
  0x07, 0x00, 0x10, 0x00, 0x0e, 0x00, 0x00, 0x00, 0x00, 0x00, 0x00, 0x08,
  0x1c, 0x00, 0x00, 0x00, 0x10, 0x00, 0x00, 0x00, 0x04, 0x00, 0x00, 0x00,
  0xba, 0xff, 0xff, 0xff, 0x00, 0x00, 0x00, 0x01, 0x01, 0x00, 0x00, 0x00,
  0x08, 0x00, 0x00, 0x00, 0x03, 0x00, 0x00, 0x00, 0x07, 0x00, 0x00, 0x00,
  0x05, 0x00, 0x00, 0x00, 0x02, 0x00, 0x00, 0x00, 0x00, 0x00, 0x0e, 0x00,
  0x16, 0x00, 0x00, 0x00, 0x08, 0x00, 0x0c, 0x00, 0x07, 0x00, 0x10, 0x00,
  0x0e, 0x00, 0x00, 0x00, 0x00, 0x00, 0x00, 0x08, 0x24, 0x00, 0x00, 0x00,
  0x18, 0x00, 0x00, 0x00, 0x0c, 0x00, 0x00, 0x00, 0x00, 0x00, 0x06, 0x00,
  0x08, 0x00, 0x07, 0x00, 0x06, 0x00, 0x00, 0x00, 0x00, 0x00, 0x00, 0x01,
  0x01, 0x00, 0x00, 0x00, 0x07, 0x00, 0x00, 0x00, 0x03, 0x00, 0x00, 0x00,
  0x00, 0x00, 0x00, 0x00, 0x04, 0x00, 0x00, 0x00, 0x01, 0x00, 0x00, 0x00,
  0x01, 0x00, 0x00, 0x00, 0x09, 0x00, 0x00, 0x00, 0x01, 0x00, 0x00, 0x00,
  0x00, 0x00, 0x00, 0x00, 0x0a, 0x00, 0x00, 0x00, 0xa0, 0x02, 0x00, 0x00,
  0x40, 0x02, 0x00, 0x00, 0xec, 0x01, 0x00, 0x00, 0x98, 0x01, 0x00, 0x00,
  0x54, 0x01, 0x00, 0x00, 0x0c, 0x01, 0x00, 0x00, 0xc4, 0x00, 0x00, 0x00,
  0x80, 0x00, 0x00, 0x00, 0x3c, 0x00, 0x00, 0x00, 0x04, 0x00, 0x00, 0x00,
  0x96, 0xfd, 0xff, 0xff, 0x24, 0x00, 0x00, 0x00, 0x0a, 0x00, 0x00, 0x00,
  0x0c, 0x00, 0x00, 0x00, 0x04, 0x00, 0x00, 0x00, 0x88, 0xfd, 0xff, 0xff,
  0x08, 0x00, 0x00, 0x00, 0x49, 0x64, 0x65, 0x6e, 0x74, 0x69, 0x74, 0x79,
  0x00, 0x00, 0x00, 0x00, 0x02, 0x00, 0x00, 0x00, 0x01, 0x00, 0x00, 0x00,
  0x01, 0x00, 0x00, 0x00, 0xca, 0xfd, 0xff, 0xff, 0x30, 0x00, 0x00, 0x00,
  0x09, 0x00, 0x00, 0x00, 0x0c, 0x00, 0x00, 0x00, 0x04, 0x00, 0x00, 0x00,
  0xbc, 0xfd, 0xff, 0xff, 0x17, 0x00, 0x00, 0x00, 0x73, 0x65, 0x71, 0x75,
  0x65, 0x6e, 0x74, 0x69, 0x61, 0x6c, 0x2f, 0x64, 0x65, 0x6e, 0x73, 0x65,
  0x5f, 0x31, 0x2f, 0x52, 0x65, 0x6c, 0x75, 0x00, 0x02, 0x00, 0x00, 0x00,
  0x01, 0x00, 0x00, 0x00, 0x10, 0x00, 0x00, 0x00, 0x0a, 0xfe, 0xff, 0xff,
  0x30, 0x00, 0x00, 0x00, 0x08, 0x00, 0x00, 0x00, 0x0c, 0x00, 0x00, 0x00,
  0x04, 0x00, 0x00, 0x00, 0xfc, 0xfd, 0xff, 0xff, 0x15, 0x00, 0x00, 0x00,
  0x73, 0x65, 0x71, 0x75, 0x65, 0x6e, 0x74, 0x69, 0x61, 0x6c, 0x2f, 0x64,
  0x65, 0x6e, 0x73, 0x65, 0x2f, 0x52, 0x65, 0x6c, 0x75, 0x00, 0x00, 0x00,
  0x02, 0x00, 0x00, 0x00, 0x01, 0x00, 0x00, 0x00, 0x10, 0x00, 0x00, 0x00,
  0x4a, 0xfe, 0xff, 0xff, 0x34, 0x00, 0x00, 0x00, 0x07, 0x00, 0x00, 0x00,
  0x0c, 0x00, 0x00, 0x00, 0x04, 0x00, 0x00, 0x00, 0x3c, 0xfe, 0xff, 0xff,
  0x19, 0x00, 0x00, 0x00, 0x73, 0x65, 0x71, 0x75, 0x65, 0x6e, 0x74, 0x69,
  0x61, 0x6c, 0x2f, 0x64, 0x65, 0x6e, 0x73, 0x65, 0x5f, 0x32, 0x2f, 0x4d,
  0x61, 0x74, 0x4d, 0x75, 0x6c, 0x00, 0x00, 0x00, 0x02, 0x00, 0x00, 0x00,
  0x01, 0x00, 0x00, 0x00, 0x10, 0x00, 0x00, 0x00, 0x8e, 0xfe, 0xff, 0xff,
  0x34, 0x00, 0x00, 0x00, 0x06, 0x00, 0x00, 0x00, 0x0c, 0x00, 0x00, 0x00,
  0x04, 0x00, 0x00, 0x00, 0x80, 0xfe, 0xff, 0xff, 0x19, 0x00, 0x00, 0x00,
  0x73, 0x65, 0x71, 0x75, 0x65, 0x6e, 0x74, 0x69, 0x61, 0x6c, 0x2f, 0x64,
  0x65, 0x6e, 0x73, 0x65, 0x5f, 0x31, 0x2f, 0x4d, 0x61, 0x74, 0x4d, 0x75,
  0x6c, 0x00, 0x00, 0x00, 0x02, 0x00, 0x00, 0x00, 0x10, 0x00, 0x00, 0x00,
  0x10, 0x00, 0x00, 0x00, 0xd2, 0xfe, 0xff, 0xff, 0x30, 0x00, 0x00, 0x00,
  0x05, 0x00, 0x00, 0x00, 0x0c, 0x00, 0x00, 0x00, 0x04, 0x00, 0x00, 0x00,
  0xc4, 0xfe, 0xff, 0xff, 0x17, 0x00, 0x00, 0x00, 0x73, 0x65, 0x71, 0x75,
  0x65, 0x6e, 0x74, 0x69, 0x61, 0x6c, 0x2f, 0x64, 0x65, 0x6e, 0x73, 0x65,
  0x2f, 0x4d, 0x61, 0x74, 0x4d, 0x75, 0x6c, 0x00, 0x02, 0x00, 0x00, 0x00,
  0x10, 0x00, 0x00, 0x00, 0x01, 0x00, 0x00, 0x00, 0x12, 0xff, 0xff, 0xff,
  0x44, 0x00, 0x00, 0x00, 0x04, 0x00, 0x00, 0x00, 0x0c, 0x00, 0x00, 0x00,
  0x04, 0x00, 0x00, 0x00, 0x04, 0xff, 0xff, 0xff, 0x29, 0x00, 0x00, 0x00,
  0x73, 0x65, 0x71, 0x75, 0x65, 0x6e, 0x74, 0x69, 0x61, 0x6c, 0x2f, 0x64,
  0x65, 0x6e, 0x73, 0x65, 0x5f, 0x32, 0x2f, 0x42, 0x69, 0x61, 0x73, 0x41,
  0x64, 0x64, 0x2f, 0x52, 0x65, 0x61, 0x64, 0x56, 0x61, 0x72, 0x69, 0x61,
  0x62, 0x6c, 0x65, 0x4f, 0x70, 0x00, 0x00, 0x00, 0x01, 0x00, 0x00, 0x00,
  0x01, 0x00, 0x00, 0x00, 0x62, 0xff, 0xff, 0xff, 0x44, 0x00, 0x00, 0x00,
  0x03, 0x00, 0x00, 0x00, 0x0c, 0x00, 0x00, 0x00, 0x04, 0x00, 0x00, 0x00,
  0x54, 0xff, 0xff, 0xff, 0x29, 0x00, 0x00, 0x00, 0x73, 0x65, 0x71, 0x75,
  0x65, 0x6e, 0x74, 0x69, 0x61, 0x6c, 0x2f, 0x64, 0x65, 0x6e, 0x73, 0x65,
  0x5f, 0x31, 0x2f, 0x42, 0x69, 0x61, 0x73, 0x41, 0x64, 0x64, 0x2f, 0x52,
  0x65, 0x61, 0x64, 0x56, 0x61, 0x72, 0x69, 0x61, 0x62, 0x6c, 0x65, 0x4f,
  0x70, 0x00, 0x00, 0x00, 0x01, 0x00, 0x00, 0x00, 0x10, 0x00, 0x00, 0x00,
  0xb2, 0xff, 0xff, 0xff, 0x40, 0x00, 0x00, 0x00, 0x02, 0x00, 0x00, 0x00,
  0x0c, 0x00, 0x00, 0x00, 0x04, 0x00, 0x00, 0x00, 0xa4, 0xff, 0xff, 0xff,
  0x27, 0x00, 0x00, 0x00, 0x73, 0x65, 0x71, 0x75, 0x65, 0x6e, 0x74, 0x69,
  0x61, 0x6c, 0x2f, 0x64, 0x65, 0x6e, 0x73, 0x65, 0x2f, 0x42, 0x69, 0x61,
  0x73, 0x41, 0x64, 0x64, 0x2f, 0x52, 0x65, 0x61, 0x64, 0x56, 0x61, 0x72,
  0x69, 0x61, 0x62, 0x6c, 0x65, 0x4f, 0x70, 0x00, 0x01, 0x00, 0x00, 0x00,
  0x10, 0x00, 0x00, 0x00, 0x00, 0x00, 0x0e, 0x00, 0x14, 0x00, 0x04, 0x00,
  0x00, 0x00, 0x08, 0x00, 0x0c, 0x00, 0x10, 0x00, 0x0e, 0x00, 0x00, 0x00,
  0x28, 0x00, 0x00, 0x00, 0x01, 0x00, 0x00, 0x00, 0x10, 0x00, 0x00, 0x00,
  0x08, 0x00, 0x00, 0x00, 0x04, 0x00, 0x04, 0x00, 0x04, 0x00, 0x00, 0x00,
  0x0b, 0x00, 0x00, 0x00, 0x64, 0x65, 0x6e, 0x73, 0x65, 0x5f, 0x69, 0x6e,
  0x70, 0x75, 0x74, 0x00, 0x02, 0x00, 0x00, 0x00, 0x01, 0x00, 0x00, 0x00,
  0x01, 0x00, 0x00, 0x00, 0x01, 0x00, 0x00, 0x00, 0x10, 0x00, 0x00, 0x00,
  0x00, 0x00, 0x0a, 0x00, 0x0c, 0x00, 0x07, 0x00, 0x00, 0x00, 0x08, 0x00,
  0x0a, 0x00, 0x00, 0x00, 0x00, 0x00, 0x00, 0x09, 0x03, 0x00, 0x00, 0x00
 
};

#endif //SINE_MODEL_H