#ifndef VENTI_MODEL_H
#define VENTI_MODEL_H


unsigned int venti_model_len = 4976;
unsigned char venti_model[] = {
 0x0c, 0x00, 0x00, 0x00, 0x54, 0x46, 0x4c, 0x33, 0x00, 0x00, 0x00, 0x00,
  0xfe, 0xf1, 0xff, 0xff, 0x03, 0x00, 0x00, 0x00, 0x3c, 0x13, 0x00, 0x00,
  0xec, 0x0d, 0x00, 0x00, 0xd4, 0x0d, 0x00, 0x00, 0x04, 0x00, 0x00, 0x00,
  0x0e, 0x00, 0x00, 0x00, 0xc4, 0x0d, 0x00, 0x00, 0xbc, 0x0d, 0x00, 0x00,
  0xac, 0x0c, 0x00, 0x00, 0x44, 0x0c, 0x00, 0x00, 0x04, 0x0c, 0x00, 0x00,
  0xe4, 0x0b, 0x00, 0x00, 0xd4, 0x09, 0x00, 0x00, 0xc4, 0x04, 0x00, 0x00,
  0xf4, 0x00, 0x00, 0x00, 0x24, 0x00, 0x00, 0x00, 0x1c, 0x00, 0x00, 0x00,
  0x14, 0x00, 0x00, 0x00, 0x0c, 0x00, 0x00, 0x00, 0x04, 0x00, 0x00, 0x00,
  0x34, 0xed, 0xff, 0xff, 0x38, 0xed, 0xff, 0xff, 0x3c, 0xed, 0xff, 0xff,
  0x40, 0xed, 0xff, 0xff, 0x9a, 0xf3, 0xff, 0xff, 0x04, 0x00, 0x00, 0x00,
  0xc0, 0x00, 0x00, 0x00, 0x53, 0x16, 0x93, 0xbb, 0xe7, 0x70, 0x1e, 0x3b,
  0xc0, 0x29, 0xe3, 0xb6, 0xd7, 0x88, 0xde, 0x3a, 0x26, 0x31, 0x6f, 0xbe,
  0x17, 0x2c, 0x0c, 0xbf, 0x1f, 0xc4, 0xdf, 0xbb, 0x92, 0xa7, 0x11, 0xbb,
  0xd2, 0xd3, 0xa4, 0x3d, 0xeb, 0xde, 0xba, 0x3b, 0x02, 0x6e, 0xad, 0xbc,
  0xa9, 0xf5, 0xbe, 0x3f, 0x3d, 0xbd, 0x08, 0x3f, 0xb9, 0xae, 0xdf, 0xbb,
  0x74, 0x14, 0xb0, 0x3c, 0x11, 0xca, 0x90, 0xbf, 0xff, 0x72, 0x1c, 0xbf,
  0xe4, 0x59, 0x4f, 0x3d, 0xb4, 0x4c, 0x04, 0x40, 0xfe, 0xed, 0xdd, 0xbe,
  0x0a, 0x5a, 0xdc, 0x3e, 0xbe, 0x61, 0x29, 0x3f, 0xbd, 0x4d, 0x33, 0xbf,
  0x52, 0x69, 0x33, 0xbe, 0xda, 0xd0, 0x7d, 0xbe, 0x67, 0x8c, 0x6f, 0x3f,
  0x7d, 0x9a, 0x3e, 0x3c, 0x70, 0x05, 0xa0, 0x3c, 0x1c, 0xc1, 0x65, 0xbe,
  0x20, 0x20, 0x48, 0xbe, 0x1a, 0x52, 0x93, 0xbd, 0xcc, 0x81, 0xc1, 0xbc,
  0xba, 0x26, 0xd9, 0xbe, 0xc6, 0x63, 0x94, 0x3d, 0x76, 0xa1, 0x43, 0xbe,
  0xe1, 0x52, 0x7e, 0xbc, 0x05, 0xc9, 0x04, 0x3e, 0xe4, 0x5d, 0x16, 0xbb,
  0x07, 0x5c, 0x7d, 0x3f, 0x94, 0xd1, 0xbb, 0x3b, 0xe8, 0x71, 0x54, 0xbe,
  0x65, 0x0e, 0x05, 0x3e, 0x22, 0x1f, 0x2b, 0xbf, 0x74, 0x95, 0xab, 0xbf,
  0xf6, 0x4b, 0x81, 0xbe, 0x53, 0xd0, 0x0d, 0xc0, 0x6e, 0x84, 0x18, 0xbf,
  0xc8, 0xf6, 0xe4, 0xbb, 0x66, 0xf4, 0xff, 0xff, 0x04, 0x00, 0x00, 0x00,
  0xc0, 0x03, 0x00, 0x00, 0xc1, 0xa3, 0xd3, 0x3c, 0x11, 0xb6, 0x5c, 0xbd,
  0xfa, 0xef, 0x6a, 0x3e, 0xb1, 0xf9, 0xce, 0x3d, 0x59, 0x96, 0xd0, 0xbd,
  0x68, 0x76, 0x82, 0x3c, 0x8b, 0x43, 0x8a, 0x3c, 0x51, 0x37, 0xc2, 0xbe,
  0x00, 0x52, 0xfd, 0x3d, 0x1d, 0xc1, 0xbf, 0x3e, 0xe9, 0x01, 0x7d, 0x3d,
  0x46, 0x7b, 0x18, 0x3d, 0x10, 0x56, 0xb0, 0x3c, 0x06, 0xea, 0xdd, 0xbd,
  0xbf, 0x30, 0xc1, 0x3d, 0x4f, 0xdf, 0x9a, 0x3e, 0xc2, 0x47, 0xad, 0x3d,
  0x0a, 0xeb, 0x36, 0xbd, 0x67, 0x50, 0x92, 0x3d, 0xee, 0x14, 0x2d, 0x3d,
  0x4e, 0x34, 0x2c, 0x3c, 0xd8, 0xfa, 0x6d, 0xbc, 0x79, 0xf5, 0x2f, 0x3e,
  0xec, 0xd4, 0x1a, 0x3d, 0xdb, 0x9f, 0xad, 0xbd, 0x2b, 0x97, 0xa9, 0x3b,
  0xae, 0x0a, 0xd1, 0xc0, 0xa0, 0x4c, 0xfe, 0x3c, 0xf4, 0x05, 0xad, 0x3c,
  0xf7, 0x4d, 0x86, 0xbe, 0x8c, 0x2b, 0xe1, 0x3c, 0xc8, 0x87, 0xe5, 0x3c,
  0x02, 0x79, 0xc8, 0x3c, 0x98, 0x8e, 0xa0, 0xbd, 0x56, 0x1c, 0x7e, 0x3d,
  0x00, 0xcb, 0x56, 0x3e, 0x81, 0x43, 0xf1, 0x3d, 0xf4, 0x3c, 0xbe, 0xbc,
  0x13, 0x98, 0x35, 0x3d, 0xfc, 0x9d, 0x4a, 0x3d, 0x0d, 0x0d, 0xa7, 0xbe,
  0x35, 0x55, 0x15, 0x3f, 0xeb, 0x29, 0x7a, 0x3e, 0x4b, 0xf0, 0x17, 0x3f,
  0x2f, 0xba, 0x20, 0x3f, 0x88, 0x64, 0x1e, 0x3d, 0x89, 0x72, 0x88, 0xbe,
  0xb0, 0x5b, 0xbf, 0xbe, 0xaa, 0xb7, 0xc8, 0x3d, 0x0b, 0x30, 0xdd, 0xbb,
  0x75, 0xf2, 0x90, 0x3e, 0xe2, 0x98, 0xf0, 0xbf, 0x41, 0x76, 0xc5, 0xbe,
  0x68, 0xc9, 0xf7, 0x3e, 0x44, 0x20, 0x27, 0x3e, 0xb4, 0x3e, 0xa6, 0xbe,
  0xf0, 0x49, 0x33, 0xbd, 0x0e, 0x2a, 0x13, 0xbf, 0x23, 0x5d, 0xb6, 0x3d,
  0xc0, 0x9e, 0x85, 0xbf, 0xbb, 0x0d, 0xd3, 0x3d, 0x20, 0xca, 0x2c, 0x3e,
  0x48, 0xbe, 0x15, 0x3e, 0x0d, 0xcf, 0x4f, 0x3e, 0x74, 0x9e, 0x1c, 0xbd,
  0x71, 0x59, 0xe1, 0xbe, 0x58, 0xde, 0x81, 0xc0, 0xd8, 0x8d, 0x07, 0x3d,
  0xef, 0x20, 0x86, 0x3d, 0x2b, 0x89, 0x62, 0x3e, 0x1b, 0x89, 0xb8, 0xbd,
  0xa1, 0xd5, 0xed, 0x3b, 0xf4, 0xd0, 0xc1, 0xbe, 0x1b, 0x54, 0x14, 0xbd,
  0x27, 0x76, 0xab, 0x3d, 0x2e, 0x52, 0x58, 0x3e, 0x85, 0x5f, 0x49, 0x3d,
  0xd8, 0x4f, 0x9e, 0xbd, 0xb7, 0xd2, 0x45, 0xc0, 0x9e, 0x04, 0x00, 0x3f,
  0xa0, 0x36, 0x02, 0xbd, 0xcf, 0x42, 0xae, 0xbe, 0x20, 0xd4, 0x02, 0x3d,
  0xb6, 0x7d, 0x3a, 0x3e, 0x37, 0x38, 0xd3, 0x3e, 0xa5, 0x87, 0x8f, 0xbe,
  0x2b, 0xdc, 0x60, 0xbe, 0x06, 0x17, 0x3e, 0xbe, 0xa9, 0xc1, 0x41, 0xbe,
  0x9b, 0x6a, 0xbe, 0xbe, 0x0e, 0xd5, 0x00, 0x3e, 0x18, 0x4d, 0x62, 0xbe,
  0xff, 0xc1, 0x90, 0x3e, 0x50, 0xf1, 0x33, 0xbd, 0xfa, 0x32, 0xd5, 0xbe,
  0xdc, 0x8a, 0x8b, 0xbe, 0x18, 0xf9, 0x62, 0x3d, 0xfe, 0xf3, 0xbb, 0xbe,
  0x3f, 0x98, 0xae, 0xbe, 0xc8, 0xe3, 0x5f, 0xbe, 0xe8, 0xed, 0x87, 0xbe,
  0x41, 0x4e, 0xcd, 0xbe, 0x8e, 0xaf, 0x14, 0x3d, 0xd0, 0xd4, 0x78, 0xbd,
  0x5f, 0x77, 0xce, 0xbe, 0xa0, 0xb8, 0x90, 0xbd, 0x61, 0x7c, 0xd9, 0xbe,
  0x40, 0xf4, 0x69, 0xbd, 0x5c, 0xae, 0x82, 0x3b, 0x85, 0x1e, 0xd8, 0x3e,
  0x61, 0xca, 0x43, 0x3e, 0xf1, 0x3f, 0x92, 0xbe, 0x84, 0xe8, 0xac, 0xbe,
  0x9c, 0x96, 0xfa, 0xbd, 0x41, 0x8d, 0x66, 0x3e, 0x8c, 0x68, 0xa5, 0xbe,
  0x8e, 0x64, 0x6c, 0x3e, 0xb8, 0xe6, 0xba, 0xbe, 0x11, 0xbf, 0x6e, 0xbe,
  0xe6, 0x58, 0xb4, 0x3c, 0xb4, 0xeb, 0x1b, 0xc0, 0xf8, 0xb6, 0x10, 0x3a,
  0x73, 0x0f, 0xce, 0xba, 0x0c, 0x82, 0xac, 0x3d, 0x3c, 0xe8, 0xb0, 0x3d,
  0x40, 0x26, 0xa8, 0xbe, 0xdc, 0x52, 0x38, 0x3e, 0x37, 0x82, 0xbf, 0x3e,
  0xc8, 0xc4, 0x18, 0x3e, 0xf0, 0x1c, 0xc4, 0xbc, 0x3b, 0x01, 0x4c, 0xbe,
  0x30, 0xb9, 0x2f, 0xbf, 0x62, 0xda, 0x45, 0xbf, 0x54, 0x58, 0x55, 0x3d,
  0x1a, 0x35, 0x69, 0x3e, 0x1a, 0xec, 0x74, 0x3d, 0xfa, 0xac, 0x8a, 0xbe,
  0x58, 0xca, 0x9c, 0xbf, 0x28, 0xaf, 0x86, 0xbe, 0x14, 0xf5, 0x2e, 0xbe,
  0x00, 0x07, 0x30, 0x3d, 0xd7, 0xf1, 0x3d, 0x3e, 0x6c, 0x30, 0x8e, 0x3d,
  0xed, 0x7f, 0xa2, 0x3e, 0xdc, 0x45, 0x3c, 0x3e, 0x8a, 0x2a, 0xd7, 0x3e,
  0x78, 0xb7, 0x6a, 0xbe, 0xf6, 0xc0, 0x99, 0xbe, 0x77, 0x7e, 0x8b, 0xbe,
  0x57, 0xd2, 0x6c, 0xbe, 0xb5, 0x1e, 0x3b, 0x3e, 0x0d, 0x55, 0x2f, 0xc0,
  0xa2, 0xf3, 0x71, 0x3c, 0x1c, 0x97, 0x37, 0xbd, 0x74, 0x0e, 0xa1, 0x3e,
  0x41, 0x33, 0xa2, 0xbe, 0x0d, 0x8c, 0xb0, 0xbe, 0xd5, 0x9c, 0x57, 0xbe,
  0x9d, 0x05, 0x0b, 0x3e, 0x6b, 0x73, 0x88, 0xbf, 0x41, 0x48, 0x85, 0x3d,
  0x47, 0x00, 0x96, 0x3e, 0x4e, 0xb7, 0x05, 0xbe, 0xaa, 0x33, 0xbf, 0xbe,
  0xfe, 0xbe, 0x11, 0xbe, 0x2e, 0x6c, 0x4d, 0xbe, 0x5b, 0x4a, 0x70, 0x3e,
  0x1b, 0x18, 0xda, 0x3e, 0xfa, 0x2e, 0xcd, 0xbe, 0x97, 0xa7, 0x1f, 0x3e,
  0x10, 0xcf, 0x12, 0xbd, 0x9a, 0x78, 0x0f, 0xbe, 0xac, 0x44, 0x93, 0x3e,
  0x40, 0x70, 0x20, 0x3e, 0xb2, 0x8b, 0x18, 0xbe, 0x29, 0x90, 0x01, 0xbf,
  0x90, 0xcf, 0xe4, 0xbc, 0x03, 0x8c, 0x57, 0x3e, 0xcb, 0x52, 0xda, 0xbd,
  0xe7, 0xa2, 0x91, 0xbd, 0xb5, 0x97, 0xeb, 0xbf, 0x86, 0x0c, 0x2e, 0x3e,
  0xf2, 0x00, 0xd1, 0x3d, 0xf2, 0x07, 0xa2, 0x3d, 0xe8, 0x48, 0x74, 0x3e,
  0x8e, 0x91, 0x47, 0xbe, 0x1b, 0xe0, 0x2f, 0x3e, 0xe0, 0x64, 0x2f, 0xbc,
  0x4c, 0xea, 0xa3, 0xbd, 0x91, 0x9b, 0xf4, 0xbd, 0x25, 0x5b, 0xa9, 0xbd,
  0x50, 0x9b, 0x04, 0xc0, 0x2b, 0x95, 0x2b, 0xbe, 0x17, 0xee, 0x84, 0x3c,
  0x1a, 0x3f, 0x85, 0xbd, 0x70, 0x2a, 0x04, 0x3e, 0x8b, 0xbc, 0xb4, 0x3e,
  0x0b, 0xf0, 0xa9, 0xbf, 0xdc, 0xbe, 0x45, 0xbc, 0xb4, 0x0b, 0x65, 0xbf,
  0x2b, 0x84, 0xfb, 0x3d, 0x2d, 0x58, 0x84, 0xbe, 0x6b, 0x4d, 0xaa, 0x3e,
  0xde, 0xa8, 0x26, 0x3e, 0xa0, 0x9d, 0x90, 0x3e, 0x96, 0x1e, 0x07, 0xbe,
  0xe5, 0xe7, 0x3b, 0xbe, 0x00, 0xe2, 0x56, 0x3b, 0xfd, 0x61, 0xb5, 0xbc,
  0xf2, 0x1e, 0x32, 0xbe, 0x06, 0x51, 0xbf, 0xbd, 0x27, 0x1c, 0x11, 0xbe,
  0x73, 0x11, 0x21, 0xbe, 0x2b, 0xc5, 0x0e, 0xbe, 0x9d, 0xee, 0x27, 0xbe,
  0xb2, 0x6e, 0x38, 0xbe, 0x00, 0x30, 0x21, 0x3c, 0x50, 0xee, 0xe8, 0xbe,
  0x63, 0x28, 0xbc, 0xbe, 0x70, 0x49, 0xda, 0xbe, 0xc6, 0x35, 0x84, 0xbd,
  0x6d, 0x22, 0x0c, 0xbe, 0xb5, 0x31, 0x35, 0xbe, 0xb0, 0xd2, 0x50, 0x3e,
  0x0c, 0xa6, 0x0f, 0xc0, 0xf0, 0x5f, 0xbc, 0x3e, 0xdd, 0x17, 0x71, 0xbe,
  0x3a, 0x4f, 0x70, 0x3e, 0x16, 0x69, 0xc4, 0x3d, 0x79, 0x0f, 0x9c, 0x3e,
  0x63, 0x70, 0xde, 0xbd, 0x27, 0xd8, 0x0a, 0x3e, 0xce, 0x74, 0x2a, 0x3f,
  0x94, 0xea, 0xc1, 0x3e, 0x3c, 0xaa, 0x8e, 0xbc, 0xc8, 0x41, 0x5c, 0x3e,
  0x3e, 0x94, 0x00, 0x3e, 0xd4, 0xe0, 0xd7, 0xbf, 0x2b, 0x72, 0x16, 0xc0,
  0x30, 0x59, 0x7b, 0x3f, 0x32, 0xf8, 0xff, 0xff, 0x04, 0x00, 0x00, 0x00,
  0x00, 0x05, 0x00, 0x00, 0xe7, 0xff, 0x06, 0xf7, 0xff, 0xf6, 0x02, 0x00,
  0xf4, 0xfe, 0x02, 0xee, 0x01, 0xff, 0x05, 0x05, 0xf9, 0xfe, 0x04, 0xeb,
  0x0a, 0x07, 0x00, 0xfb, 0xff, 0xfb, 0xff, 0xf7, 0x05, 0xf7, 0x04, 0xf1,
  0xeb, 0x01, 0x05, 0xfc, 0x02, 0xea, 0xfb, 0x04, 0x09, 0xf7, 0x0e, 0x05,
  0xf3, 0xf0, 0x05, 0x06, 0xf3, 0x0d, 0x0c, 0x01, 0x0d, 0xe5, 0xef, 0xfb,
  0x00, 0xe8, 0xfe, 0x09, 0x13, 0xf5, 0xfa, 0x0a, 0x02, 0x02, 0x01, 0x0c,
  0xff, 0xfb, 0xeb, 0x00, 0x00, 0xfc, 0xed, 0x81, 0xf8, 0x09, 0x00, 0x0b,
  0xff, 0xfe, 0x01, 0x06, 0x04, 0xf2, 0x03, 0xf9, 0xfd, 0xfc, 0xfd, 0xfc,
  0xf8, 0xff, 0x09, 0x02, 0x91, 0xfa, 0xf7, 0x04, 0x01, 0x08, 0x02, 0xfa,
  0x03, 0x04, 0xfe, 0x07, 0x07, 0x10, 0xfc, 0x04, 0x07, 0xfe, 0x08, 0x0a,
  0xe1, 0xfe, 0x0b, 0x01, 0xfa, 0x0f, 0x03, 0xf6, 0xfd, 0xb1, 0x08, 0xfe,
  0xfd, 0x03, 0x07, 0x03, 0xfd, 0x01, 0x02, 0xfc, 0x02, 0xfa, 0xff, 0xfa,
  0x00, 0x02, 0xff, 0xfd, 0xf8, 0x02, 0x02, 0xfc, 0x00, 0x05, 0x05, 0x05,
  0x02, 0xfb, 0xff, 0xf5, 0xfb, 0xfd, 0x04, 0x01, 0x05, 0x07, 0x06, 0xfb,
  0x03, 0xfd, 0x04, 0x02, 0x01, 0x06, 0x01, 0xff, 0x00, 0x06, 0x05, 0xff,
  0x00, 0x03, 0xf7, 0x04, 0xfb, 0x03, 0x00, 0xfd, 0xfe, 0x00, 0x00, 0x04,
  0xfe, 0x00, 0x05, 0xfe, 0x07, 0x00, 0xfe, 0x03, 0x03, 0x01, 0xfe, 0xff,
  0xfd, 0x04, 0xd3, 0xc4, 0xff, 0x01, 0xfe, 0x06, 0x05, 0xfd, 0x03, 0xec,
  0x03, 0xe6, 0x01, 0x04, 0xf3, 0xfd, 0x09, 0x0a, 0xe9, 0x09, 0x03, 0x01,
  0xd9, 0xfa, 0xf9, 0xff, 0x06, 0x16, 0xfd, 0xf0, 0x06, 0x02, 0x0d, 0xff,
  0x02, 0x1e, 0x03, 0x02, 0x04, 0xf9, 0xfd, 0xf9, 0xe0, 0x06, 0x08, 0xfe,
  0x09, 0x0a, 0xfb, 0xe3, 0xe0, 0xd5, 0xfc, 0x02, 0xe8, 0xff, 0x07, 0x00,
  0x01, 0x0a, 0xf5, 0xf4, 0x08, 0xb7, 0xef, 0xf1, 0xd2, 0x08, 0x05, 0x03,
  0xfe, 0x00, 0xca, 0x14, 0x04, 0x02, 0xf3, 0x01, 0x02, 0xff, 0xf6, 0xf3,
  0xf9, 0xf3, 0x03, 0x09, 0x06, 0xfe, 0x02, 0x41, 0x08, 0x01, 0xfb, 0x06,
  0x1b, 0xf3, 0x0b, 0x03, 0xea, 0x04, 0xfe, 0x03, 0xf3, 0xf4, 0xe9, 0x04,
  0xe3, 0x03, 0x05, 0x01, 0x07, 0xf8, 0x0e, 0xff, 0xfd, 0xe0, 0x06, 0xf9,
  0x0f, 0xde, 0x08, 0x0b, 0xf6, 0x00, 0x11, 0xd1, 0xf8, 0x00, 0xfd, 0xf2,
  0x04, 0xef, 0xce, 0xfc, 0xee, 0xfe, 0x05, 0xf2, 0x00, 0x04, 0x00, 0xf9,
  0x00, 0x02, 0x09, 0x23, 0x06, 0x10, 0x06, 0x13, 0x09, 0x0b, 0x03, 0xfb,
  0xd3, 0x0c, 0x03, 0x02, 0xff, 0x09, 0xfa, 0x03, 0x0c, 0x02, 0x03, 0x05,
  0x09, 0xfd, 0xff, 0xf3, 0xfc, 0xfd, 0x04, 0xf7, 0x03, 0x0f, 0xff, 0xf6,
  0xf7, 0xeb, 0x07, 0xd7, 0xf6, 0x01, 0xfe, 0x04, 0xfa, 0x0e, 0xfb, 0x22,
  0xfc, 0xf7, 0xf0, 0x09, 0xf3, 0x01, 0x1d, 0xcc, 0xe9, 0xf7, 0xf5, 0xdc,
  0x2a, 0x2a, 0x04, 0xde, 0xd6, 0xcf, 0xfe, 0x0d, 0x24, 0x03, 0xd6, 0x00,
  0x0a, 0xf8, 0xb0, 0x02, 0x24, 0x04, 0xff, 0xd1, 0x06, 0x08, 0x04, 0x00,
  0x00, 0x05, 0x0b, 0x00, 0x00, 0x03, 0xc5, 0x02, 0xf3, 0xc1, 0x08, 0x02,
  0x01, 0x02, 0x00, 0x23, 0xf0, 0x07, 0x01, 0x1c, 0xfd, 0xf9, 0xf9, 0xfc,
  0x00, 0x02, 0x08, 0xf9, 0xf9, 0xfa, 0xfa, 0xfe, 0xfe, 0xfc, 0xfd, 0xfa,
  0x07, 0x04, 0x00, 0xff, 0xfd, 0x01, 0xfb, 0x03, 0x04, 0x01, 0xfb, 0x06,
  0x08, 0xfc, 0xfa, 0x05, 0xff, 0xfb, 0x00, 0x05, 0x05, 0x06, 0xff, 0xfa,
  0x04, 0xfd, 0x00, 0x01, 0xfb, 0xfd, 0xfe, 0x01, 0x00, 0x00, 0xfc, 0xfa,
  0xfe, 0xf8, 0xfa, 0xfc, 0xfe, 0x00, 0x03, 0x01, 0xfa, 0x02, 0x08, 0x06,
  0x02, 0xff, 0xf7, 0x03, 0x03, 0xfb, 0x05, 0x01, 0x00, 0x06, 0x04, 0x09,
  0xfb, 0xff, 0x01, 0x02, 0x05, 0x02, 0x04, 0xfe, 0x09, 0xfc, 0x02, 0xfd,
  0x04, 0x01, 0xfb, 0xfa, 0x04, 0xfb, 0x03, 0x02, 0xf8, 0xfc, 0xfb, 0x01,
  0xf8, 0x01, 0x01, 0xff, 0xfb, 0x01, 0x00, 0xfe, 0xfb, 0x01, 0x05, 0xff,
  0xff, 0x02, 0xff, 0x04, 0x03, 0xff, 0xff, 0x03, 0xff, 0x02, 0x02, 0xf9,
  0xfb, 0xf9, 0x02, 0xfa, 0x05, 0x00, 0xfd, 0x03, 0xfd, 0xfe, 0x03, 0xf8,
  0xf8, 0xff, 0xfa, 0xff, 0xfd, 0xfb, 0x01, 0xfb, 0xfc, 0x05, 0x04, 0xfa,
  0xfd, 0x04, 0xfb, 0x04, 0x04, 0x06, 0xf8, 0x07, 0xff, 0xfc, 0x01, 0x00,
  0xfc, 0xfa, 0xfc, 0x03, 0xfe, 0xfe, 0xfb, 0xff, 0x03, 0xfd, 0xf9, 0x03,
  0xfb, 0xfc, 0xfa, 0xfe, 0xfb, 0xff, 0x06, 0x05, 0xfd, 0x06, 0xf8, 0xfa,
  0xfe, 0x06, 0x06, 0x06, 0xf8, 0x00, 0xf9, 0xfb, 0x03, 0x02, 0x06, 0x0b,
  0xf9, 0x01, 0x06, 0x04, 0xfa, 0x06, 0xfc, 0x03, 0x02, 0xfd, 0xff, 0x04,
  0xf2, 0xfa, 0x01, 0x02, 0x00, 0xff, 0x05, 0xfd, 0xf8, 0x00, 0x05, 0xf7,
  0xf9, 0x04, 0x02, 0x01, 0x09, 0xf9, 0xfb, 0x07, 0x04, 0x04, 0x02, 0xf4,
  0x02, 0x01, 0xfc, 0x04, 0x05, 0x05, 0x01, 0xfb, 0x00, 0xf9, 0xf5, 0x0b,
  0x04, 0x05, 0x01, 0xfa, 0x05, 0x08, 0x03, 0xfe, 0xf7, 0xfc, 0xf9, 0xfe,
  0x04, 0xfa, 0x07, 0xf7, 0xf6, 0x03, 0xe7, 0xfc, 0xf7, 0xfb, 0x14, 0xfd,
  0xfe, 0xfd, 0x03, 0xfb, 0xf3, 0x02, 0x00, 0xf3, 0x00, 0xfd, 0xfa, 0xfa,
  0xf4, 0x01, 0xfc, 0x0a, 0xf8, 0xfb, 0x02, 0xfa, 0xf0, 0x04, 0x02, 0x07,
  0xfb, 0xf5, 0x11, 0x04, 0xff, 0x00, 0xfe, 0x02, 0x02, 0xf7, 0x0d, 0xfd,
  0xfe, 0xf4, 0x03, 0xf9, 0x18, 0xff, 0xf9, 0x13, 0xf5, 0xfd, 0x05, 0x00,
  0x1a, 0xf8, 0xfb, 0xfc, 0x05, 0xf6, 0xfc, 0x0a, 0x0a, 0x01, 0x04, 0xa9,
  0xf1, 0xff, 0xfc, 0xff, 0x07, 0xfa, 0xc9, 0x00, 0xfd, 0x00, 0x06, 0x12,
  0xfe, 0xf8, 0x0b, 0xeb, 0xfb, 0x06, 0x04, 0x10, 0xea, 0x06, 0xfa, 0x0e,
  0x0b, 0x00, 0xfa, 0xf8, 0xbb, 0x0c, 0xfc, 0x02, 0x08, 0x0e, 0x01, 0xff,
  0x0b, 0x06, 0x09, 0xfc, 0xfd, 0xf9, 0x00, 0xef, 0xfa, 0xfe, 0x0c, 0x01,
  0xfb, 0xfd, 0x02, 0xf3, 0x01, 0xf9, 0x09, 0xa5, 0x02, 0xfc, 0x04, 0x0c,
  0x04, 0x08, 0xec, 0xf8, 0xf9, 0x02, 0xf1, 0xa1, 0xfb, 0x02, 0xfa, 0x00,
  0xf7, 0x00, 0xfc, 0xfc, 0xfe, 0x03, 0x02, 0xf8, 0x04, 0xf6, 0xfd, 0x06,
  0x01, 0xfc, 0x04, 0x0b, 0xa6, 0xf1, 0x04, 0x05, 0xf6, 0x0b, 0x01, 0xfc,
  0x02, 0x02, 0xee, 0x03, 0xfe, 0x0b, 0x0f, 0x00, 0x05, 0xf7, 0xfc, 0x03,
  0xe5, 0xfa, 0x05, 0xfd, 0x06, 0xfe, 0x02, 0x04, 0xe1, 0xc3, 0xfc, 0xf8,
  0xfb, 0x07, 0x02, 0xfb, 0x01, 0x04, 0x0a, 0x08, 0xfd, 0xfd, 0x01, 0xfd,
  0x03, 0x01, 0xfd, 0xfa, 0x06, 0x00, 0xfc, 0xfc, 0xfe, 0xfb, 0xff, 0xfe,
  0xfd, 0x06, 0xfc, 0x02, 0xf6, 0x06, 0x04, 0xfd, 0xfe, 0x03, 0x08, 0x04,
  0xfe, 0xfb, 0x04, 0x01, 0xfd, 0xfe, 0xfe, 0xfe, 0xfd, 0xfa, 0xff, 0xfa,
  0xfe, 0x05, 0xff, 0xfe, 0x03, 0xff, 0xf9, 0xfc, 0x0a, 0xf5, 0xfe, 0x03,
  0x08, 0x00, 0x05, 0x00, 0xfd, 0xf9, 0x04, 0xfd, 0xfd, 0xff, 0xfa, 0xf7,
  0xfb, 0x00, 0x06, 0x00, 0x04, 0xfa, 0xfd, 0x06, 0xfa, 0xff, 0x08, 0xfc,
  0x02, 0xf8, 0xff, 0xfb, 0x01, 0x03, 0x03, 0xfe, 0xfa, 0x04, 0x04, 0x02,
  0xfb, 0x07, 0x07, 0x02, 0xfe, 0x06, 0x09, 0xff, 0x03, 0x01, 0x09, 0x01,
  0x07, 0xfc, 0x03, 0x03, 0xff, 0xfc, 0xfd, 0xf9, 0x04, 0x05, 0x03, 0x05,
  0x04, 0x02, 0xf8, 0xfb, 0xff, 0xf5, 0x00, 0xf8, 0xfc, 0x06, 0x02, 0xf9,
  0xf9, 0x07, 0x05, 0x05, 0x04, 0xfd, 0xf8, 0x01, 0xfb, 0xfc, 0xf9, 0xfb,
  0xf9, 0xfd, 0x00, 0xfa, 0xfe, 0x01, 0x01, 0x03, 0xfa, 0xfa, 0xfd, 0x02,
  0x05, 0xff, 0x04, 0xfb, 0xf8, 0x07, 0xfb, 0xfd, 0x00, 0xfe, 0x01, 0x07,
  0xfb, 0x02, 0xfb, 0x01, 0x02, 0xff, 0xfe, 0xff, 0x06, 0x01, 0x05, 0x06,
  0xf9, 0xfc, 0xf9, 0xfe, 0xfb, 0xfb, 0x04, 0x02, 0xff, 0x06, 0x05, 0xfc,
  0xe5, 0xff, 0x06, 0x05, 0x06, 0xc0, 0x08, 0x04, 0xe2, 0x02, 0xfa, 0x00,
  0x05, 0xee, 0xfa, 0x09, 0x0c, 0xff, 0xfe, 0x07, 0x0e, 0xf8, 0x00, 0x00,
  0x06, 0xfb, 0xfa, 0xf1, 0x02, 0xf4, 0x00, 0xf9, 0xff, 0xdd, 0x03, 0x0a,
  0x05, 0xf9, 0xff, 0x03, 0x04, 0xed, 0xdf, 0x05, 0xfb, 0xf9, 0xfb, 0x02,
  0xfe, 0x00, 0xfa, 0xf8, 0x03, 0xe2, 0x04, 0x06, 0x02, 0x02, 0x00, 0x05,
  0xef, 0xfd, 0x05, 0xff, 0x11, 0xf4, 0xff, 0x15, 0xe6, 0x02, 0x06, 0x01,
  0xfc, 0xfe, 0xfc, 0xf9, 0xf7, 0x02, 0xf5, 0x01, 0x12, 0xff, 0x06, 0x04,
  0x02, 0x03, 0x06, 0xfb, 0xea, 0x19, 0x04, 0xfe, 0x0a, 0x16, 0xfc, 0x17,
  0x0c, 0xfd, 0xf5, 0x0b, 0x06, 0x1a, 0xe1, 0x06, 0xf0, 0x0a, 0x03, 0x01,
  0x02, 0x0c, 0x03, 0x01, 0x01, 0xfb, 0xf4, 0xdd, 0xfa, 0x06, 0x14, 0xc5,
  0xf9, 0x18, 0x05, 0xfb, 0x01, 0x04, 0xfe, 0xf6, 0x04, 0xfd, 0x04, 0x0a,
  0xfe, 0x05, 0x08, 0xd1, 0xf8, 0x02, 0xff, 0x04, 0x05, 0xfc, 0xe4, 0x02,
  0x02, 0x02, 0x01, 0xda, 0xf1, 0xab, 0x04, 0xf2, 0xfe, 0xff, 0x0a, 0xf4,
  0xa6, 0x09, 0xfd, 0x00, 0x07, 0x03, 0x02, 0x04, 0xd0, 0x03, 0x04, 0x06,
  0xf4, 0xff, 0xf4, 0x01, 0xff, 0x06, 0xff, 0x01, 0x03, 0xeb, 0x01, 0x02,
  0xff, 0xfd, 0x0c, 0xfe, 0x04, 0x07, 0x02, 0xbb, 0xfa, 0xfd, 0x01, 0xbb,
  0x3e, 0xfd, 0xff, 0xff, 0x04, 0x00, 0x00, 0x00, 0x00, 0x02, 0x00, 0x00,
  0x04, 0x67, 0x81, 0xbe, 0xce, 0x89, 0x87, 0x3d, 0xc3, 0x11, 0x67, 0x3e,
  0x49, 0xeb, 0xc0, 0xbd, 0xe4, 0x71, 0x8d, 0xbb, 0x26, 0xb4, 0x80, 0xbd,
  0xc6, 0x26, 0x0a, 0xbb, 0x11, 0x2b, 0xbf, 0xba, 0x22, 0x64, 0x09, 0x3d,
  0x6f, 0xac, 0xe9, 0x3e, 0xa7, 0x2f, 0xaf, 0xbd, 0xac, 0xef, 0x6b, 0xbd,
  0xbe, 0x67, 0x52, 0xbd, 0x68, 0x4c, 0x05, 0xbe, 0x36, 0xf7, 0x22, 0x3e,
  0xee, 0x82, 0x27, 0x3e, 0xc3, 0x90, 0xbb, 0xbe, 0x80, 0x05, 0xba, 0x3d,
  0xa9, 0xd3, 0x4e, 0x3e, 0xd8, 0xa6, 0x8b, 0x3d, 0x69, 0x71, 0xe1, 0xbd,
  0x56, 0x0d, 0x73, 0xbe, 0xa1, 0x26, 0xb0, 0x3c, 0x3f, 0x19, 0x8e, 0xbe,
  0x09, 0xcd, 0x93, 0x3e, 0x4a, 0x8e, 0xee, 0x3d, 0x48, 0xe5, 0x75, 0xbe,
  0xfa, 0x1a, 0x2a, 0x3e, 0x44, 0x49, 0xdb, 0x3d, 0xc4, 0xa2, 0xdd, 0x3d,
  0x9a, 0x0c, 0x06, 0xbe, 0xeb, 0x83, 0x09, 0xbd, 0x78, 0xce, 0x83, 0x3d,
  0x74, 0x47, 0xed, 0x3b, 0x8b, 0x86, 0x13, 0xbb, 0x15, 0x3e, 0xd2, 0x3a,
  0x0d, 0xdc, 0xd5, 0x3e, 0x44, 0x46, 0x42, 0x3e, 0x74, 0x70, 0x8a, 0xbe,
  0x22, 0x39, 0x2a, 0xbe, 0xda, 0x6f, 0x4b, 0x3e, 0xc6, 0x4e, 0x81, 0x3e,
  0xe0, 0x4e, 0x82, 0xbe, 0xde, 0x92, 0x80, 0xbe, 0x4a, 0x69, 0x54, 0xbd,
  0xc4, 0x30, 0xad, 0x3d, 0x72, 0x54, 0x66, 0x3e, 0xe9, 0x27, 0x96, 0x3e,
  0xa3, 0xef, 0x60, 0x3e, 0x90, 0xe1, 0x19, 0x3f, 0x54, 0xda, 0x89, 0x3c,
  0x38, 0x64, 0x37, 0x3e, 0xab, 0x82, 0x14, 0xbc, 0x43, 0x25, 0x50, 0x3e,
  0xe2, 0xf2, 0x83, 0x3e, 0x0a, 0x31, 0x54, 0x3e, 0x99, 0xb6, 0x72, 0xbe,
  0xf1, 0xe6, 0x72, 0xbe, 0xaf, 0x39, 0x9b, 0xbe, 0xeb, 0x06, 0xe3, 0x3d,
  0x21, 0x0d, 0x36, 0xbe, 0x9f, 0xd9, 0x4a, 0xbd, 0xd9, 0x4d, 0x7e, 0x3d,
  0x77, 0x82, 0x05, 0xbe, 0x7c, 0xd3, 0x80, 0xbc, 0xd8, 0x62, 0xd2, 0xbe,
  0x1b, 0xd8, 0x51, 0xbe, 0x5e, 0xaa, 0x58, 0xbe, 0x30, 0xd9, 0xf4, 0x3b,
  0xf9, 0x01, 0xa8, 0x3e, 0xd7, 0x4a, 0x9c, 0xbc, 0x9b, 0x6f, 0xc4, 0xbd,
  0x0f, 0xd2, 0x1e, 0x3e, 0x15, 0x8e, 0x1f, 0x3e, 0xc4, 0x75, 0x38, 0x3b,
  0x20, 0x8c, 0x99, 0xbd, 0xee, 0x00, 0x44, 0x3e, 0x89, 0xad, 0x07, 0x3e,
  0xa0, 0xad, 0x38, 0x3e, 0xee, 0xef, 0xaf, 0x3e, 0x8c, 0x46, 0x6b, 0x3e,
  0x54, 0x2f, 0x38, 0x3e, 0xb0, 0xa6, 0x24, 0xbe, 0x2f, 0xb1, 0x49, 0x3d,
  0x6a, 0xd7, 0x5a, 0xbe, 0xb4, 0xad, 0x7c, 0xbe, 0x60, 0xea, 0xa5, 0xba,
  0xb0, 0x39, 0x83, 0x38, 0xb8, 0xb7, 0x46, 0x3e, 0x3f, 0xd2, 0xdd, 0xbc,
  0xe0, 0x96, 0xd4, 0xbb, 0x94, 0x32, 0x08, 0xbc, 0xc2, 0x0e, 0x66, 0xbd,
  0x47, 0xf1, 0x71, 0xbe, 0xdc, 0xc7, 0x40, 0x3a, 0x28, 0xfb, 0x9b, 0x39,
  0x8e, 0xea, 0x22, 0x3c, 0x96, 0xa9, 0x36, 0x3c, 0xaf, 0xed, 0x58, 0xbd,
  0xa3, 0xd7, 0xf5, 0xbd, 0x96, 0x28, 0xe4, 0xbe, 0x75, 0x79, 0x52, 0xbe,
  0xf4, 0x8f, 0xcd, 0x3e, 0xa1, 0xd3, 0xa5, 0x3c, 0x33, 0x9e, 0xe1, 0xbd,
  0xfc, 0xed, 0x82, 0xbe, 0xc3, 0x6f, 0xf4, 0xbe, 0xa8, 0x07, 0x30, 0xbe,
  0x98, 0xfe, 0xaa, 0xbb, 0xa8, 0x25, 0xd0, 0xb9, 0x03, 0x09, 0x88, 0x3e,
  0xc1, 0xbc, 0x84, 0x3e, 0x26, 0x98, 0xb9, 0xbb, 0x10, 0xfd, 0xa1, 0xbb,
  0x2a, 0x14, 0x28, 0x3d, 0xe3, 0x90, 0xe3, 0xbd, 0x9c, 0x8b, 0xbf, 0x3a,
  0x26, 0x46, 0x42, 0xbb, 0xdd, 0xec, 0x47, 0xbe, 0x6b, 0xe9, 0x47, 0xbe,
  0x7b, 0xad, 0x37, 0xbe, 0x78, 0xf3, 0xc2, 0xbe, 0x54, 0x6e, 0x69, 0x3c,
  0xd6, 0x8a, 0x98, 0xbe, 0x80, 0x78, 0x8d, 0xbb, 0x4e, 0x02, 0x94, 0xba,
  0xc0, 0x93, 0x6d, 0x3e, 0x30, 0xc2, 0x72, 0x3e, 0x4a, 0xff, 0xff, 0xff,
  0x04, 0x00, 0x00, 0x00, 0x10, 0x00, 0x00, 0x00, 0xf1, 0xa2, 0x1a, 0x3c,
  0x2d, 0x04, 0xca, 0x3e, 0x1b, 0xa0, 0x91, 0x3e, 0x3e, 0xf9, 0x59, 0x3f,
  0x66, 0xff, 0xff, 0xff, 0x04, 0x00, 0x00, 0x00, 0x30, 0x00, 0x00, 0x00,
  0x22, 0x66, 0xf8, 0x3e, 0x13, 0x56, 0x1b, 0x3f, 0xcc, 0x6f, 0x99, 0xbd,
  0x56, 0x02, 0xd5, 0x3e, 0x00, 0x00, 0x00, 0x00, 0xe9, 0x7a, 0x5c, 0xbd,
  0x97, 0x48, 0x27, 0x3e, 0xbc, 0x46, 0x0c, 0x3e, 0x43, 0xce, 0x2c, 0xbe,
  0x04, 0x15, 0x0a, 0x3e, 0x6e, 0xaf, 0x8d, 0xbd, 0x15, 0x75, 0x13, 0xbe,
  0xa2, 0xff, 0xff, 0xff, 0x04, 0x00, 0x00, 0x00, 0x50, 0x00, 0x00, 0x00,
  0xf4, 0x7b, 0xc0, 0x3e, 0xb7, 0x18, 0x36, 0x3e, 0xba, 0x4a, 0x0a, 0x3f,
  0x7d, 0xd7, 0xac, 0x3d, 0xcb, 0xad, 0x32, 0x3d, 0xa6, 0x99, 0x80, 0xbc,
  0xd1, 0x72, 0x16, 0x3e, 0x00, 0x00, 0x00, 0x00, 0x51, 0xd4, 0xd6, 0x3c,
  0x05, 0x9a, 0x15, 0xbd, 0xd9, 0xd0, 0x18, 0x3e, 0x15, 0x09, 0xbf, 0x3e,
  0xa8, 0x6d, 0xb2, 0x3e, 0x90, 0xc0, 0x43, 0x3d, 0xee, 0x2a, 0xbe, 0x3e,
  0xf3, 0x2d, 0x2b, 0x3f, 0xed, 0xf9, 0xe9, 0xbc, 0xdc, 0xb9, 0x67, 0x3d,
  0x56, 0x56, 0x0b, 0x3e, 0x12, 0xbc, 0x76, 0x3e, 0x00, 0x00, 0x06, 0x00,
  0x08, 0x00, 0x04, 0x00, 0x06, 0x00, 0x00, 0x00, 0x04, 0x00, 0x00, 0x00,
  0x00, 0x01, 0x00, 0x00, 0xb9, 0x33, 0x02, 0xbe, 0xec, 0xa6, 0x8f, 0xbe,
  0x23, 0xf5, 0xa1, 0x3e, 0xb3, 0xdb, 0xd8, 0xbc, 0xf6, 0x26, 0x45, 0xbe,
  0x1e, 0x45, 0xb9, 0x3d, 0x42, 0x79, 0xfc, 0xbd, 0xee, 0xbf, 0x06, 0xbe,
  0x88, 0x2b, 0xc0, 0xbe, 0x9a, 0x89, 0xdc, 0x3a, 0x27, 0x77, 0xd5, 0xbc,
  0xc7, 0xa2, 0xa1, 0xbe, 0x1a, 0xf5, 0x3e, 0x3d, 0x35, 0x40, 0xff, 0xbe,
  0xb4, 0xf1, 0xb0, 0xbd, 0x2e, 0x17, 0x9c, 0x3d, 0xd8, 0x9c, 0xea, 0xbe,
  0x5d, 0xdb, 0xed, 0xbc, 0x44, 0xc6, 0x1a, 0x3d, 0xd1, 0x4e, 0xd3, 0xbe,
  0x9a, 0x10, 0xd2, 0x3c, 0x41, 0xf6, 0x6d, 0xbe, 0x6c, 0x45, 0xdd, 0x3c,
  0x37, 0x3f, 0x9e, 0xbe, 0xc6, 0xc9, 0x60, 0x3e, 0xa8, 0x7c, 0x26, 0x3e,
  0xff, 0x94, 0x76, 0xbd, 0xc1, 0xd5, 0x9f, 0xbe, 0xed, 0x6f, 0x63, 0xbe,
  0x4d, 0xbf, 0x07, 0xbe, 0xb5, 0xf2, 0x6e, 0x3d, 0x8b, 0x7a, 0x89, 0xbd,
  0xf4, 0x09, 0xb1, 0xbe, 0x9e, 0xda, 0x7e, 0x3e, 0x48, 0xde, 0xc5, 0x3e,
  0x37, 0xa0, 0xb3, 0x3d, 0x84, 0x0c, 0x00, 0xbe, 0xd9, 0xe9, 0x72, 0xbd,
  0x24, 0x6e, 0xa2, 0x3e, 0xf7, 0xc7, 0x0f, 0xbe, 0xc8, 0x84, 0x58, 0x3d,
  0xc3, 0xc5, 0x98, 0xbd, 0x99, 0x52, 0x09, 0x3e, 0x62, 0x0a, 0x80, 0xbc,
  0x04, 0xb2, 0xa6, 0xbc, 0xc5, 0x7a, 0xd1, 0xbd, 0x4b, 0x24, 0x22, 0x3e,
  0xfd, 0x83, 0xcc, 0xbc, 0x52, 0x35, 0x1b, 0xbe, 0xb8, 0xe4, 0xbe, 0xbe,
  0x43, 0x6e, 0x57, 0xbd, 0xaf, 0xaf, 0x58, 0xbe, 0xfb, 0xc2, 0x7f, 0xbc,
  0xfa, 0x77, 0x10, 0x3e, 0x9e, 0x3c, 0xaa, 0xbd, 0xff, 0x75, 0xc0, 0x3e,
  0xcd, 0xc2, 0xd5, 0xbd, 0x3f, 0x6f, 0x8c, 0xbd, 0xd4, 0x62, 0x65, 0xbd,
  0xe2, 0x6e, 0x3f, 0xbe, 0xe1, 0x79, 0x3a, 0xbd, 0x09, 0x68, 0xa8, 0xbe,
  0x9f, 0xd5, 0x30, 0xbd, 0x85, 0xdf, 0x45, 0xbe, 0xbc, 0xfa, 0xff, 0xff,
  0xc0, 0xfa, 0xff, 0xff, 0x0f, 0x00, 0x00, 0x00, 0x4d, 0x4c, 0x49, 0x52,
  0x20, 0x43, 0x6f, 0x6e, 0x76, 0x65, 0x72, 0x74, 0x65, 0x64, 0x2e, 0x00,
  0x01, 0x00, 0x00, 0x00, 0x14, 0x00, 0x00, 0x00, 0x00, 0x00, 0x0e, 0x00,
  0x18, 0x00, 0x04, 0x00, 0x08, 0x00, 0x0c, 0x00, 0x10, 0x00, 0x14, 0x00,
  0x0e, 0x00, 0x00, 0x00, 0x38, 0x01, 0x00, 0x00, 0x2c, 0x01, 0x00, 0x00,
  0x20, 0x01, 0x00, 0x00, 0x14, 0x00, 0x00, 0x00, 0x04, 0x00, 0x00, 0x00,
  0x04, 0x00, 0x00, 0x00, 0x6d, 0x61, 0x69, 0x6e, 0x00, 0x00, 0x00, 0x00,
  0x04, 0x00, 0x00, 0x00, 0xc8, 0x00, 0x00, 0x00, 0x80, 0x00, 0x00, 0x00,
  0x38, 0x00, 0x00, 0x00, 0x04, 0x00, 0x00, 0x00, 0x9a, 0xff, 0xff, 0xff,
  0x00, 0x00, 0x00, 0x08, 0x18, 0x00, 0x00, 0x00, 0x0c, 0x00, 0x00, 0x00,
  0x04, 0x00, 0x00, 0x00, 0x3c, 0xfb, 0xff, 0xff, 0x01, 0x00, 0x00, 0x00,
  0x0c, 0x00, 0x00, 0x00, 0x03, 0x00, 0x00, 0x00, 0x0b, 0x00, 0x00, 0x00,
  0x08, 0x00, 0x00, 0x00, 0x04, 0x00, 0x00, 0x00, 0xca, 0xff, 0xff, 0xff,
  0x00, 0x00, 0x00, 0x08, 0x1c, 0x00, 0x00, 0x00, 0x10, 0x00, 0x00, 0x00,
  0x04, 0x00, 0x00, 0x00, 0x76, 0xff, 0xff, 0xff, 0x00, 0x00, 0x00, 0x01,
  0x01, 0x00, 0x00, 0x00, 0x0b, 0x00, 0x00, 0x00, 0x03, 0x00, 0x00, 0x00,
  0x0a, 0x00, 0x00, 0x00, 0x07, 0x00, 0x00, 0x00, 0x03, 0x00, 0x00, 0x00,
  0x00, 0x00, 0x0e, 0x00, 0x14, 0x00, 0x00, 0x00, 0x08, 0x00, 0x0c, 0x00,
  0x07, 0x00, 0x10, 0x00, 0x0e, 0x00, 0x00, 0x00, 0x00, 0x00, 0x00, 0x08,
  0x1c, 0x00, 0x00, 0x00, 0x10, 0x00, 0x00, 0x00, 0x04, 0x00, 0x00, 0x00,
  0xba, 0xff, 0xff, 0xff, 0x00, 0x00, 0x00, 0x01, 0x01, 0x00, 0x00, 0x00,
  0x0a, 0x00, 0x00, 0x00, 0x03, 0x00, 0x00, 0x00, 0x09, 0x00, 0x00, 0x00,
  0x06, 0x00, 0x00, 0x00, 0x02, 0x00, 0x00, 0x00, 0x00, 0x00, 0x0e, 0x00,
  0x16, 0x00, 0x00, 0x00, 0x08, 0x00, 0x0c, 0x00, 0x07, 0x00, 0x10, 0x00,
  0x0e, 0x00, 0x00, 0x00, 0x00, 0x00, 0x00, 0x08, 0x24, 0x00, 0x00, 0x00,
  0x18, 0x00, 0x00, 0x00, 0x0c, 0x00, 0x00, 0x00, 0x00, 0x00, 0x06, 0x00,
  0x08, 0x00, 0x07, 0x00, 0x06, 0x00, 0x00, 0x00, 0x00, 0x00, 0x00, 0x01,
  0x01, 0x00, 0x00, 0x00, 0x09, 0x00, 0x00, 0x00, 0x03, 0x00, 0x00, 0x00,
  0x00, 0x00, 0x00, 0x00, 0x05, 0x00, 0x00, 0x00, 0x01, 0x00, 0x00, 0x00,
  0x01, 0x00, 0x00, 0x00, 0x0c, 0x00, 0x00, 0x00, 0x01, 0x00, 0x00, 0x00,
  0x00, 0x00, 0x00, 0x00, 0x0d, 0x00, 0x00, 0x00, 0xbc, 0x03, 0x00, 0x00,
  0x5c, 0x03, 0x00, 0x00, 0x08, 0x03, 0x00, 0x00, 0xb4, 0x02, 0x00, 0x00,
  0x60, 0x02, 0x00, 0x00, 0x1c, 0x02, 0x00, 0x00, 0xa8, 0x01, 0x00, 0x00,
  0x50, 0x01, 0x00, 0x00, 0x08, 0x01, 0x00, 0x00, 0xc4, 0x00, 0x00, 0x00,
  0x80, 0x00, 0x00, 0x00, 0x3c, 0x00, 0x00, 0x00, 0x04, 0x00, 0x00, 0x00,
  0x86, 0xfc, 0xff, 0xff, 0x24, 0x00, 0x00, 0x00, 0x0d, 0x00, 0x00, 0x00,
  0x0c, 0x00, 0x00, 0x00, 0x04, 0x00, 0x00, 0x00, 0x78, 0xfc, 0xff, 0xff,
  0x08, 0x00, 0x00, 0x00, 0x49, 0x64, 0x65, 0x6e, 0x74, 0x69, 0x74, 0x79,
  0x00, 0x00, 0x00, 0x00, 0x02, 0x00, 0x00, 0x00, 0x01, 0x00, 0x00, 0x00,
  0x04, 0x00, 0x00, 0x00, 0xba, 0xfc, 0xff, 0xff, 0x30, 0x00, 0x00, 0x00,
  0x0c, 0x00, 0x00, 0x00, 0x0c, 0x00, 0x00, 0x00, 0x04, 0x00, 0x00, 0x00,
  0xac, 0xfc, 0xff, 0xff, 0x17, 0x00, 0x00, 0x00, 0x73, 0x65, 0x71, 0x75,
  0x65, 0x6e, 0x74, 0x69, 0x61, 0x6c, 0x2f, 0x64, 0x65, 0x6e, 0x73, 0x65,
  0x5f, 0x32, 0x2f, 0x52, 0x65, 0x6c, 0x75, 0x00, 0x02, 0x00, 0x00, 0x00,
  0x01, 0x00, 0x00, 0x00, 0x0c, 0x00, 0x00, 0x00, 0xfa, 0xfc, 0xff, 0xff,
  0x30, 0x00, 0x00, 0x00, 0x0b, 0x00, 0x00, 0x00, 0x0c, 0x00, 0x00, 0x00,
  0x04, 0x00, 0x00, 0x00, 0xec, 0xfc, 0xff, 0xff, 0x17, 0x00, 0x00, 0x00,
  0x73, 0x65, 0x71, 0x75, 0x65, 0x6e, 0x74, 0x69, 0x61, 0x6c, 0x2f, 0x64,
  0x65, 0x6e, 0x73, 0x65, 0x5f, 0x31, 0x2f, 0x52, 0x65, 0x6c, 0x75, 0x00,
  0x02, 0x00, 0x00, 0x00, 0x01, 0x00, 0x00, 0x00, 0x14, 0x00, 0x00, 0x00,
  0x3a, 0xfd, 0xff, 0xff, 0x30, 0x00, 0x00, 0x00, 0x0a, 0x00, 0x00, 0x00,
  0x0c, 0x00, 0x00, 0x00, 0x04, 0x00, 0x00, 0x00, 0x2c, 0xfd, 0xff, 0xff,
  0x15, 0x00, 0x00, 0x00, 0x73, 0x65, 0x71, 0x75, 0x65, 0x6e, 0x74, 0x69,
  0x61, 0x6c, 0x2f, 0x64, 0x65, 0x6e, 0x73, 0x65, 0x2f, 0x52, 0x65, 0x6c,
  0x75, 0x00, 0x00, 0x00, 0x02, 0x00, 0x00, 0x00, 0x01, 0x00, 0x00, 0x00,
  0x40, 0x00, 0x00, 0x00, 0x7a, 0xfd, 0xff, 0xff, 0x34, 0x00, 0x00, 0x00,
  0x09, 0x00, 0x00, 0x00, 0x0c, 0x00, 0x00, 0x00, 0x04, 0x00, 0x00, 0x00,
  0x6c, 0xfd, 0xff, 0xff, 0x19, 0x00, 0x00, 0x00, 0x73, 0x65, 0x71, 0x75,
  0x65, 0x6e, 0x74, 0x69, 0x61, 0x6c, 0x2f, 0x64, 0x65, 0x6e, 0x73, 0x65,
  0x5f, 0x33, 0x2f, 0x4d, 0x61, 0x74, 0x4d, 0x75, 0x6c, 0x00, 0x00, 0x00,
  0x02, 0x00, 0x00, 0x00, 0x04, 0x00, 0x00, 0x00, 0x0c, 0x00, 0x00, 0x00,
  0xbe, 0xfd, 0xff, 0xff, 0x34, 0x00, 0x00, 0x00, 0x08, 0x00, 0x00, 0x00,
  0x0c, 0x00, 0x00, 0x00, 0x04, 0x00, 0x00, 0x00, 0xb0, 0xfd, 0xff, 0xff,
  0x19, 0x00, 0x00, 0x00, 0x73, 0x65, 0x71, 0x75, 0x65, 0x6e, 0x74, 0x69,
  0x61, 0x6c, 0x2f, 0x64, 0x65, 0x6e, 0x73, 0x65, 0x5f, 0x32, 0x2f, 0x4d,
  0x61, 0x74, 0x4d, 0x75, 0x6c, 0x00, 0x00, 0x00, 0x02, 0x00, 0x00, 0x00,
  0x0c, 0x00, 0x00, 0x00, 0x14, 0x00, 0x00, 0x00, 0x00, 0x00, 0x0e, 0x00,
  0x18, 0x00, 0x08, 0x00, 0x07, 0x00, 0x0c, 0x00, 0x10, 0x00, 0x14, 0x00,
  0x0e, 0x00, 0x00, 0x00, 0x00, 0x00, 0x00, 0x09, 0x5c, 0x00, 0x00, 0x00,
  0x07, 0x00, 0x00, 0x00, 0x34, 0x00, 0x00, 0x00, 0x10, 0x00, 0x00, 0x00,
  0x0c, 0x00, 0x0c, 0x00, 0x00, 0x00, 0x00, 0x00, 0x04, 0x00, 0x08, 0x00,
  0x0c, 0x00, 0x00, 0x00, 0x14, 0x00, 0x00, 0x00, 0x04, 0x00, 0x00, 0x00,
  0x01, 0x00, 0x00, 0x00, 0x00, 0x00, 0x00, 0x00, 0x00, 0x00, 0x00, 0x00,
  0x01, 0x00, 0x00, 0x00, 0xe9, 0xeb, 0x08, 0x3d, 0x19, 0x00, 0x00, 0x00,
  0x73, 0x65, 0x71, 0x75, 0x65, 0x6e, 0x74, 0x69, 0x61, 0x6c, 0x2f, 0x64,
  0x65, 0x6e, 0x73, 0x65, 0x5f, 0x31, 0x2f, 0x4d, 0x61, 0x74, 0x4d, 0x75,
  0x6c, 0x00, 0x00, 0x00, 0x02, 0x00, 0x00, 0x00, 0x14, 0x00, 0x00, 0x00,
  0x40, 0x00, 0x00, 0x00, 0x82, 0xfe, 0xff, 0xff, 0x30, 0x00, 0x00, 0x00,
  0x06, 0x00, 0x00, 0x00, 0x0c, 0x00, 0x00, 0x00, 0x04, 0x00, 0x00, 0x00,
  0x74, 0xfe, 0xff, 0xff, 0x17, 0x00, 0x00, 0x00, 0x73, 0x65, 0x71, 0x75,
  0x65, 0x6e, 0x74, 0x69, 0x61, 0x6c, 0x2f, 0x64, 0x65, 0x6e, 0x73, 0x65,
  0x2f, 0x4d, 0x61, 0x74, 0x4d, 0x75, 0x6c, 0x00, 0x02, 0x00, 0x00, 0x00,
  0x40, 0x00, 0x00, 0x00, 0x02, 0x00, 0x00, 0x00, 0xc2, 0xfe, 0xff, 0xff,
  0x44, 0x00, 0x00, 0x00, 0x05, 0x00, 0x00, 0x00, 0x0c, 0x00, 0x00, 0x00,
  0x04, 0x00, 0x00, 0x00, 0xb4, 0xfe, 0xff, 0xff, 0x29, 0x00, 0x00, 0x00,
  0x73, 0x65, 0x71, 0x75, 0x65, 0x6e, 0x74, 0x69, 0x61, 0x6c, 0x2f, 0x64,
  0x65, 0x6e, 0x73, 0x65, 0x5f, 0x33, 0x2f, 0x42, 0x69, 0x61, 0x73, 0x41,
  0x64, 0x64, 0x2f, 0x52, 0x65, 0x61, 0x64, 0x56, 0x61, 0x72, 0x69, 0x61,
  0x62, 0x6c, 0x65, 0x4f, 0x70, 0x00, 0x00, 0x00, 0x01, 0x00, 0x00, 0x00,
  0x04, 0x00, 0x00, 0x00, 0x12, 0xff, 0xff, 0xff, 0x44, 0x00, 0x00, 0x00,
  0x04, 0x00, 0x00, 0x00, 0x0c, 0x00, 0x00, 0x00, 0x04, 0x00, 0x00, 0x00,
  0x04, 0xff, 0xff, 0xff, 0x29, 0x00, 0x00, 0x00, 0x73, 0x65, 0x71, 0x75,
  0x65, 0x6e, 0x74, 0x69, 0x61, 0x6c, 0x2f, 0x64, 0x65, 0x6e, 0x73, 0x65,
  0x5f, 0x32, 0x2f, 0x42, 0x69, 0x61, 0x73, 0x41, 0x64, 0x64, 0x2f, 0x52,
  0x65, 0x61, 0x64, 0x56, 0x61, 0x72, 0x69, 0x61, 0x62, 0x6c, 0x65, 0x4f,
  0x70, 0x00, 0x00, 0x00, 0x01, 0x00, 0x00, 0x00, 0x0c, 0x00, 0x00, 0x00,
  0x62, 0xff, 0xff, 0xff, 0x44, 0x00, 0x00, 0x00, 0x03, 0x00, 0x00, 0x00,
  0x0c, 0x00, 0x00, 0x00, 0x04, 0x00, 0x00, 0x00, 0x54, 0xff, 0xff, 0xff,
  0x29, 0x00, 0x00, 0x00, 0x73, 0x65, 0x71, 0x75, 0x65, 0x6e, 0x74, 0x69,
  0x61, 0x6c, 0x2f, 0x64, 0x65, 0x6e, 0x73, 0x65, 0x5f, 0x31, 0x2f, 0x42,
  0x69, 0x61, 0x73, 0x41, 0x64, 0x64, 0x2f, 0x52, 0x65, 0x61, 0x64, 0x56,
  0x61, 0x72, 0x69, 0x61, 0x62, 0x6c, 0x65, 0x4f, 0x70, 0x00, 0x00, 0x00,
  0x01, 0x00, 0x00, 0x00, 0x14, 0x00, 0x00, 0x00, 0xb2, 0xff, 0xff, 0xff,
  0x40, 0x00, 0x00, 0x00, 0x02, 0x00, 0x00, 0x00, 0x0c, 0x00, 0x00, 0x00,
  0x04, 0x00, 0x00, 0x00, 0xa4, 0xff, 0xff, 0xff, 0x27, 0x00, 0x00, 0x00,
  0x73, 0x65, 0x71, 0x75, 0x65, 0x6e, 0x74, 0x69, 0x61, 0x6c, 0x2f, 0x64,
  0x65, 0x6e, 0x73, 0x65, 0x2f, 0x42, 0x69, 0x61, 0x73, 0x41, 0x64, 0x64,
  0x2f, 0x52, 0x65, 0x61, 0x64, 0x56, 0x61, 0x72, 0x69, 0x61, 0x62, 0x6c,
  0x65, 0x4f, 0x70, 0x00, 0x01, 0x00, 0x00, 0x00, 0x40, 0x00, 0x00, 0x00,
  0x00, 0x00, 0x0e, 0x00, 0x14, 0x00, 0x04, 0x00, 0x00, 0x00, 0x08, 0x00,
  0x0c, 0x00, 0x10, 0x00, 0x0e, 0x00, 0x00, 0x00, 0x28, 0x00, 0x00, 0x00,
  0x01, 0x00, 0x00, 0x00, 0x10, 0x00, 0x00, 0x00, 0x08, 0x00, 0x00, 0x00,
  0x04, 0x00, 0x04, 0x00, 0x04, 0x00, 0x00, 0x00, 0x0b, 0x00, 0x00, 0x00,
  0x64, 0x65, 0x6e, 0x73, 0x65, 0x5f, 0x69, 0x6e, 0x70, 0x75, 0x74, 0x00,
  0x02, 0x00, 0x00, 0x00, 0x01, 0x00, 0x00, 0x00, 0x02, 0x00, 0x00, 0x00,
  0x01, 0x00, 0x00, 0x00, 0x10, 0x00, 0x00, 0x00, 0x00, 0x00, 0x0a, 0x00,
  0x0c, 0x00, 0x07, 0x00, 0x00, 0x00, 0x08, 0x00, 0x0a, 0x00, 0x00, 0x00,
  0x00, 0x00, 0x00, 0x09, 0x03, 0x00, 0x00, 0x00
};

#endif //VENTI_MODEL_H