#ifndef VENTI_MODEL_H
#define VENTI_MODEL_H


unsigned int venti_model_len = 5456;
unsigned char venti_model[] = {
 0x24, 0x00, 0x00, 0x00, 0x54, 0x46, 0x4c, 0x33, 0x00, 0x00, 0x00, 0x00,
  0x00, 0x00, 0x00, 0x00, 0x00, 0x00, 0x12, 0x00, 0x1c, 0x00, 0x04, 0x00,
  0x08, 0x00, 0x0c, 0x00, 0x10, 0x00, 0x14, 0x00, 0x00, 0x00, 0x18, 0x00,
  0x12, 0x00, 0x00, 0x00, 0x03, 0x00, 0x00, 0x00, 0x04, 0x15, 0x00, 0x00,
  0xb4, 0x0e, 0x00, 0x00, 0x9c, 0x0e, 0x00, 0x00, 0x3c, 0x00, 0x00, 0x00,
  0x04, 0x00, 0x00, 0x00, 0x01, 0x00, 0x00, 0x00, 0x0c, 0x00, 0x00, 0x00,
  0x08, 0x00, 0x0c, 0x00, 0x04, 0x00, 0x08, 0x00, 0x08, 0x00, 0x00, 0x00,
  0x08, 0x00, 0x00, 0x00, 0x0e, 0x00, 0x00, 0x00, 0x13, 0x00, 0x00, 0x00,
  0x6d, 0x69, 0x6e, 0x5f, 0x72, 0x75, 0x6e, 0x74, 0x69, 0x6d, 0x65, 0x5f,
  0x76, 0x65, 0x72, 0x73, 0x69, 0x6f, 0x6e, 0x00, 0x0f, 0x00, 0x00, 0x00,
  0x54, 0x0e, 0x00, 0x00, 0x40, 0x0e, 0x00, 0x00, 0x24, 0x0d, 0x00, 0x00,
  0xb0, 0x0c, 0x00, 0x00, 0x6c, 0x0c, 0x00, 0x00, 0x48, 0x0c, 0x00, 0x00,
  0x34, 0x0a, 0x00, 0x00, 0x20, 0x05, 0x00, 0x00, 0x4c, 0x01, 0x00, 0x00,
  0x78, 0x00, 0x00, 0x00, 0x6c, 0x00, 0x00, 0x00, 0x58, 0x00, 0x00, 0x00,
  0x44, 0x00, 0x00, 0x00, 0x30, 0x00, 0x00, 0x00, 0x04, 0x00, 0x00, 0x00,
  0x16, 0xf3, 0xff, 0xff, 0x04, 0x00, 0x00, 0x00, 0x10, 0x00, 0x00, 0x00,
  0x31, 0x2e, 0x35, 0x2e, 0x30, 0x00, 0x00, 0x00, 0x00, 0x00, 0x00, 0x00,
  0x00, 0x00, 0x00, 0x00, 0x00, 0x00, 0x00, 0x00, 0x00, 0x00, 0x00, 0x00,
  0x00, 0x00, 0x00, 0x00, 0xd4, 0xeb, 0xff, 0xff, 0x00, 0x00, 0x00, 0x00,
  0x00, 0x00, 0x00, 0x00, 0x00, 0x00, 0x00, 0x00, 0xe4, 0xeb, 0xff, 0xff,
  0x00, 0x00, 0x00, 0x00, 0x00, 0x00, 0x00, 0x00, 0x00, 0x00, 0x00, 0x00,
  0xf4, 0xeb, 0xff, 0xff, 0x00, 0x00, 0x00, 0x00, 0x00, 0x00, 0x00, 0x00,
  0x00, 0x00, 0x00, 0x00, 0x04, 0xec, 0xff, 0xff, 0x00, 0x00, 0x00, 0x00,
  0x76, 0xf3, 0xff, 0xff, 0x04, 0x00, 0x00, 0x00, 0xc0, 0x00, 0x00, 0x00,
  0xa7, 0xd3, 0x90, 0xbe, 0xff, 0x94, 0x38, 0x3f, 0xa1, 0x53, 0x1a, 0x3f,
  0xb4, 0x2a, 0xc4, 0x3b, 0xed, 0x8d, 0xd3, 0xbe, 0x2f, 0xfd, 0xad, 0xbe,
  0xe5, 0x00, 0x04, 0x3f, 0x29, 0x4b, 0x9a, 0xbe, 0x44, 0x1c, 0xc4, 0xbf,
  0xb1, 0xa3, 0x72, 0xbf, 0x7c, 0x4f, 0xe5, 0x3d, 0x4a, 0x67, 0xfa, 0xbe,
  0xd3, 0x43, 0xa7, 0xbf, 0x64, 0x88, 0x85, 0x3d, 0x09, 0x40, 0x2a, 0xbf,
  0x02, 0x85, 0x16, 0x3f, 0x05, 0x54, 0x91, 0x3f, 0xf5, 0xca, 0xbe, 0x3f,
  0x20, 0xf9, 0x04, 0xbf, 0xa1, 0x89, 0x97, 0xbe, 0x38, 0xdb, 0x1b, 0x3e,
  0xd2, 0x0c, 0x40, 0x3f, 0x18, 0x82, 0x7c, 0xbf, 0x86, 0x6e, 0xeb, 0x3e,
  0x28, 0x31, 0xcb, 0x3e, 0x17, 0x4f, 0x0c, 0xbf, 0xd1, 0x1f, 0x37, 0xbf,
  0x45, 0x75, 0x41, 0x3e, 0x3c, 0x14, 0x4c, 0xbf, 0x4a, 0x8e, 0xeb, 0xbe,
  0xd6, 0x0a, 0xf5, 0x3e, 0xc2, 0x86, 0x91, 0x3e, 0x15, 0x13, 0xf7, 0xbd,
  0x58, 0x60, 0x9d, 0xbe, 0x9c, 0x17, 0x22, 0x3f, 0x97, 0x18, 0x0e, 0x3f,
  0x0d, 0x4e, 0xa4, 0xbe, 0xad, 0xf7, 0xb7, 0x3e, 0xe0, 0xca, 0x20, 0x3f,
  0x8a, 0x49, 0x9b, 0x3e, 0x2b, 0xb7, 0x36, 0xbf, 0x4d, 0x21, 0xc6, 0x3e,
  0x41, 0x0d, 0x19, 0x3f, 0x9b, 0x08, 0x9d, 0xbe, 0x80, 0x59, 0x30, 0x3e,
  0xfe, 0x8d, 0x47, 0x3e, 0xd8, 0xff, 0xa0, 0x3e, 0xa3, 0xba, 0x06, 0xbf,
  0x00, 0x00, 0x00, 0x00, 0x46, 0xf4, 0xff, 0xff, 0x04, 0x00, 0x00, 0x00,
  0xc0, 0x03, 0x00, 0x00, 0xd7, 0xe3, 0x9c, 0x3e, 0xde, 0x73, 0xa7, 0x3e,
  0x7a, 0xcb, 0xce, 0xbe, 0x77, 0x9e, 0x88, 0xbe, 0xe5, 0x31, 0x0e, 0x3e,
  0x41, 0x0b, 0x76, 0xbf, 0xbc, 0xb8, 0x60, 0xbf, 0xe2, 0x17, 0x2d, 0xbe,
  0xf9, 0xbb, 0x78, 0x3e, 0xda, 0x4a, 0x12, 0x3e, 0xf3, 0x90, 0x89, 0x3e,
  0x41, 0x53, 0xdf, 0xbe, 0xf4, 0x0f, 0x76, 0xbf, 0x93, 0xc3, 0x81, 0x3c,
  0x48, 0x48, 0xfe, 0xbf, 0x78, 0xc5, 0x14, 0xbf, 0x9e, 0xd3, 0xb3, 0xbc,
  0x1e, 0x9b, 0x29, 0x3d, 0x73, 0xdc, 0xf8, 0x3e, 0xaa, 0xc5, 0x6f, 0xbf,
  0x07, 0x98, 0xa6, 0xbd, 0xcd, 0x0c, 0x42, 0xbe, 0xea, 0xeb, 0xb7, 0xbd,
  0x9a, 0xc8, 0x99, 0xbe, 0x0e, 0x7d, 0x7a, 0xbf, 0xb9, 0xd3, 0x6e, 0x3d,
  0x1e, 0xf7, 0x23, 0xbe, 0x7b, 0x2e, 0x91, 0x3e, 0x90, 0x75, 0x91, 0x3e,
  0x0b, 0xc1, 0x2b, 0x3d, 0xfd, 0xe8, 0x39, 0xbe, 0xec, 0xdc, 0xbb, 0x3e,
  0xc7, 0x69, 0x74, 0xbe, 0x8a, 0x5b, 0xdc, 0xbe, 0xce, 0x60, 0x67, 0x3e,
  0xc9, 0x32, 0x43, 0x3e, 0x5a, 0x63, 0x89, 0x3d, 0x65, 0xfb, 0xda, 0xbe,
  0x8c, 0x0a, 0xc3, 0x3e, 0xea, 0xb5, 0x15, 0x3f, 0xd4, 0x0e, 0x79, 0xbf,
  0xaa, 0x8f, 0x38, 0x3d, 0xe9, 0xfb, 0x0c, 0x3c, 0x78, 0xf0, 0x99, 0x3e,
  0xec, 0xb7, 0x14, 0xbf, 0xeb, 0xbf, 0x8d, 0xbe, 0x13, 0x25, 0xc3, 0x3e,
  0x86, 0x56, 0x58, 0xbe, 0x36, 0x5c, 0x13, 0xbf, 0xb9, 0xa1, 0xb0, 0x3e,
  0x5c, 0x8c, 0x43, 0x3e, 0x02, 0x45, 0x9c, 0x3e, 0x12, 0xbc, 0x2a, 0x3e,
  0x47, 0x7d, 0xab, 0x3c, 0xdb, 0x9a, 0x83, 0x3c, 0xfc, 0x1a, 0x8a, 0x3e,
  0x96, 0x4d, 0x02, 0xbe, 0xce, 0x63, 0x37, 0x3d, 0x0a, 0xab, 0x8a, 0x3d,
  0xf7, 0xbe, 0x11, 0xbe, 0xff, 0x8a, 0x9b, 0xbc, 0x65, 0xf8, 0x64, 0xbd,
  0xb3, 0xed, 0xb7, 0x3e, 0x11, 0xde, 0x3a, 0xbd, 0xa1, 0x8e, 0xf2, 0xbd,
  0x35, 0x17, 0x9b, 0xbd, 0xa0, 0x01, 0x55, 0xbd, 0x71, 0x66, 0x87, 0x3c,
  0xe7, 0xb5, 0x5e, 0xbe, 0xd3, 0x57, 0xb3, 0x3e, 0x0a, 0x3e, 0x12, 0xbd,
  0xe0, 0xca, 0xfe, 0xbc, 0xa7, 0xf2, 0x70, 0x3e, 0x5c, 0x86, 0x13, 0x3d,
  0xf4, 0xaa, 0xe3, 0x3d, 0xf4, 0x06, 0x27, 0x3e, 0x13, 0x2f, 0x37, 0xbd,
  0x47, 0x88, 0x2f, 0xbe, 0x21, 0x53, 0xb8, 0x3e, 0x11, 0xb5, 0x15, 0xbd,
  0xb4, 0x25, 0x64, 0x3f, 0x13, 0x48, 0xae, 0xbd, 0x78, 0xa3, 0x00, 0xbf,
  0x69, 0x96, 0x2b, 0xbf, 0x77, 0x80, 0xa1, 0x3e, 0x27, 0x52, 0xe1, 0x3e,
  0x0f, 0x80, 0x04, 0xbf, 0x84, 0xaa, 0x49, 0x3f, 0x78, 0x67, 0x97, 0x3e,
  0x23, 0x15, 0x7d, 0xbd, 0x71, 0xf2, 0x2c, 0x3e, 0xcb, 0x34, 0x21, 0xbf,
  0x0a, 0xf1, 0x8c, 0xbe, 0x0a, 0xf5, 0x08, 0xbf, 0xf8, 0x2a, 0x33, 0xbf,
  0xa0, 0xa8, 0x44, 0x3e, 0xd2, 0xde, 0x15, 0x3f, 0xa9, 0x72, 0x20, 0xbf,
  0xe6, 0x75, 0xb6, 0x3e, 0x03, 0x59, 0xaf, 0xbf, 0x46, 0xf7, 0x23, 0x3e,
  0x63, 0x71, 0xc5, 0x3e, 0x5f, 0x84, 0xe3, 0xbd, 0x6e, 0xb6, 0x04, 0x3e,
  0xb5, 0xbf, 0x9d, 0xbf, 0xa2, 0xb0, 0x0e, 0xbe, 0x61, 0x3c, 0x24, 0xbe,
  0xe7, 0xa5, 0xdf, 0xbe, 0x98, 0xf7, 0xa2, 0x3f, 0x8d, 0x5b, 0x3f, 0xbe,
  0x4b, 0x9b, 0x9a, 0xbd, 0x78, 0xe4, 0x02, 0x3e, 0xa4, 0x88, 0xb3, 0xbe,
  0x74, 0xfb, 0x49, 0xbe, 0x68, 0x2a, 0xbd, 0x3d, 0x24, 0x7e, 0x37, 0x3d,
  0xf9, 0xd9, 0x83, 0x3e, 0x57, 0x64, 0xb8, 0x3e, 0x1f, 0x28, 0xab, 0x3e,
  0x29, 0x9c, 0xb0, 0xbe, 0xd5, 0x0a, 0x43, 0x3f, 0x59, 0x9a, 0x14, 0x3f,
  0x65, 0x0c, 0xb5, 0xba, 0xbd, 0xbd, 0xc9, 0xbe, 0x6e, 0x1f, 0xc9, 0x3e,
  0x7e, 0x63, 0x8a, 0x3e, 0xc5, 0x51, 0xd8, 0xbe, 0xaa, 0x19, 0x17, 0x3f,
  0x1d, 0xf0, 0x27, 0x3f, 0x73, 0x69, 0x50, 0xbc, 0x29, 0xd2, 0x00, 0xbd,
  0x41, 0x46, 0x0e, 0xbf, 0x93, 0xd5, 0x9a, 0xbc, 0x70, 0x6c, 0x1c, 0xbf,
  0x2d, 0x98, 0x14, 0xbf, 0x4b, 0xa0, 0x26, 0x3e, 0x30, 0x8d, 0x25, 0x3f,
  0xb8, 0xad, 0xf9, 0xbe, 0xb9, 0x8f, 0x39, 0x3e, 0xb9, 0x19, 0xb9, 0x3e,
  0xbd, 0xf6, 0x0e, 0xbe, 0x40, 0xa3, 0x7f, 0xbe, 0x0a, 0x0a, 0xc5, 0x3e,
  0xf2, 0xba, 0xb4, 0xbc, 0x88, 0x75, 0x7c, 0xbe, 0x25, 0xef, 0xf5, 0xbe,
  0x9b, 0xb5, 0xd5, 0xbe, 0xaf, 0xc2, 0xf3, 0x3e, 0xdd, 0x89, 0x28, 0xbf,
  0xf0, 0x0a, 0x02, 0x3e, 0x41, 0x9b, 0x59, 0x3d, 0x63, 0x98, 0x5e, 0xbf,
  0xa7, 0xb0, 0x9c, 0xbe, 0x6a, 0x94, 0xa5, 0xbe, 0xd6, 0xe3, 0xe0, 0x3e,
  0xe5, 0xa2, 0x11, 0x3e, 0xc3, 0x16, 0x31, 0x3e, 0xe1, 0x8e, 0x65, 0xbf,
  0x74, 0xdb, 0x34, 0x3e, 0x23, 0xf1, 0x23, 0x3e, 0x3d, 0x9c, 0x11, 0x3d,
  0x32, 0xef, 0x0d, 0x3f, 0xc6, 0x7b, 0x33, 0x3d, 0xdb, 0x57, 0x2b, 0xbf,
  0x9b, 0x22, 0xdc, 0x3c, 0x59, 0xb1, 0xd3, 0xbd, 0x3d, 0x98, 0x6a, 0x3d,
  0x97, 0xbe, 0xfa, 0xbf, 0x6b, 0xe7, 0x09, 0x3e, 0x54, 0xd5, 0x5a, 0xbd,
  0x99, 0x58, 0x4b, 0x3e, 0x26, 0x62, 0x18, 0xbe, 0x44, 0x57, 0x31, 0xbc,
  0x98, 0x9b, 0xa7, 0xbd, 0xa2, 0x4d, 0xa2, 0x3c, 0x2c, 0x23, 0xf8, 0x3d,
  0xf3, 0xd3, 0x4c, 0x3e, 0x52, 0x5d, 0x73, 0x3e, 0x9f, 0xb9, 0x27, 0x3e,
  0x1d, 0xa0, 0xc9, 0xbe, 0x02, 0x1f, 0xef, 0xbe, 0xc2, 0x65, 0xde, 0x3e,
  0x59, 0xf2, 0x33, 0xbe, 0x20, 0xcd, 0xe2, 0xb9, 0xa4, 0xc2, 0x64, 0x3c,
  0x3b, 0xbf, 0xf7, 0xbe, 0x5e, 0x60, 0x91, 0x3d, 0x1a, 0x6b, 0x1c, 0x3d,
  0xbb, 0xb3, 0x19, 0x3f, 0xa5, 0xe9, 0x14, 0x3c, 0xe3, 0x8d, 0x6f, 0x3e,
  0x5a, 0xf0, 0xab, 0xbe, 0x08, 0xaa, 0x2b, 0x3e, 0x9e, 0xe7, 0x2d, 0xbf,
  0x49, 0xe7, 0x98, 0x3e, 0x56, 0x2f, 0x7a, 0xbe, 0x94, 0xc3, 0x85, 0xbf,
  0x71, 0xac, 0xbf, 0x3d, 0x85, 0x99, 0xa2, 0x3e, 0x0c, 0x40, 0x20, 0xbe,
  0xee, 0xc9, 0x11, 0x3f, 0x39, 0x19, 0x3e, 0xbf, 0x20, 0x09, 0x8d, 0xbe,
  0xa6, 0xac, 0x22, 0xbf, 0x38, 0x97, 0x78, 0x3e, 0xbe, 0xef, 0x8e, 0x3e,
  0xbf, 0x7a, 0xb1, 0xbd, 0x21, 0x9d, 0x23, 0x3f, 0x7a, 0x19, 0x64, 0xbe,
  0xc9, 0x5a, 0x3e, 0xbc, 0x93, 0x70, 0x75, 0x3e, 0x85, 0x8c, 0xf1, 0xbe,
  0x64, 0xd0, 0xb6, 0xbe, 0xa5, 0xba, 0x5f, 0xbe, 0xad, 0x2d, 0xf3, 0xbe,
  0x65, 0xee, 0x51, 0x3e, 0x5c, 0x63, 0xcf, 0x3e, 0x8b, 0xc3, 0xa2, 0xbe,
  0x65, 0x3d, 0x03, 0x3f, 0xb5, 0x95, 0x1b, 0xbf, 0x76, 0xeb, 0xc0, 0xbf,
  0xfa, 0x7a, 0x92, 0x3d, 0x22, 0xe0, 0xc4, 0x3c, 0x06, 0x3f, 0xf1, 0x3e,
  0xed, 0x54, 0x09, 0x3e, 0x6d, 0xf1, 0x56, 0xbf, 0xd2, 0x65, 0x85, 0xbe,
  0x97, 0xc1, 0x34, 0x3c, 0x35, 0x7d, 0x6d, 0xbf, 0xed, 0x41, 0xa2, 0x3e,
  0x22, 0x17, 0x3e, 0x3d, 0x12, 0xe1, 0x5e, 0x3e, 0x0a, 0x34, 0x9e, 0x3d,
  0x60, 0x7a, 0xe2, 0x3d, 0xd3, 0x73, 0xcf, 0xbe, 0x6f, 0x9c, 0x42, 0x3f,
  0xcf, 0x1d, 0x49, 0xbe, 0xfe, 0x39, 0xfe, 0x3e, 0x50, 0x10, 0x24, 0xbe,
  0xfa, 0x12, 0x10, 0xbe, 0x00, 0x00, 0x00, 0x00, 0x16, 0xf8, 0xff, 0xff,
  0x04, 0x00, 0x00, 0x00, 0x00, 0x05, 0x00, 0x00, 0xd9, 0x01, 0xec, 0xdd,
  0x03, 0xdc, 0xde, 0xff, 0x01, 0xf6, 0x02, 0x09, 0x07, 0xf1, 0xee, 0x13,
  0xe1, 0xfd, 0x00, 0x15, 0x03, 0x07, 0xf7, 0xf1, 0xfb, 0xfa, 0x04, 0xea,
  0x06, 0x0b, 0x12, 0x00, 0xe1, 0x09, 0x08, 0x06, 0x0c, 0x03, 0x18, 0x05,
  0xf2, 0xc2, 0x05, 0xe2, 0x0c, 0x14, 0xae, 0x0f, 0x07, 0x06, 0x0d, 0x0f,
  0x0d, 0xf0, 0x10, 0xfd, 0x08, 0xf5, 0xfb, 0xf9, 0xf6, 0xf8, 0x0d, 0xf4,
  0x06, 0x14, 0x38, 0xf9, 0xf9, 0x07, 0x23, 0x03, 0x0b, 0xfa, 0x0b, 0x07,
  0xf7, 0xfd, 0x11, 0xca, 0xf2, 0x04, 0xe8, 0xfe, 0x0b, 0x06, 0xf7, 0xf9,
  0x01, 0xee, 0x09, 0x07, 0x08, 0xe7, 0xe2, 0xf8, 0x2a, 0x02, 0x03, 0x01,
  0xfb, 0xff, 0xfd, 0xfa, 0x01, 0xc5, 0xa5, 0x05, 0x0b, 0xfb, 0xc4, 0xc8,
  0xeb, 0x07, 0x01, 0xf7, 0x00, 0x0d, 0xff, 0xf7, 0xee, 0xf4, 0x11, 0x08,
  0x07, 0x03, 0x0d, 0x01, 0x0a, 0x04, 0x09, 0xf5, 0x07, 0xfe, 0x0a, 0x12,
  0xfa, 0x10, 0xff, 0x04, 0x03, 0x0a, 0x15, 0xf5, 0xfb, 0xfe, 0xfa, 0xf6,
  0xfc, 0xf7, 0xf5, 0x08, 0x09, 0x07, 0x04, 0x0c, 0x0f, 0xfa, 0xf5, 0xf4,
  0x07, 0x0b, 0xfc, 0xf8, 0x05, 0x01, 0x02, 0xf8, 0x00, 0x0c, 0xf6, 0x0a,
  0xfa, 0xf0, 0x0c, 0x06, 0xfa, 0x09, 0xf0, 0xf1, 0xe6, 0xff, 0xf8, 0x08,
  0x03, 0xfe, 0xfb, 0xfd, 0xf6, 0xf9, 0x08, 0x06, 0x0a, 0x0c, 0xfd, 0x00,
  0x03, 0xfc, 0x01, 0xff, 0x0c, 0x06, 0xfd, 0xf9, 0x0b, 0x12, 0xfa, 0x0a,
  0xf6, 0x0c, 0x0e, 0x04, 0x07, 0xf7, 0xe8, 0x0c, 0x05, 0xff, 0xfb, 0x0c,
  0xf6, 0x04, 0x01, 0x00, 0x13, 0x0f, 0x09, 0x02, 0x09, 0x02, 0x06, 0x18,
  0x06, 0x17, 0xc8, 0x0e, 0xf6, 0x0b, 0x0b, 0xc7, 0xfd, 0x06, 0x0a, 0xfd,
  0xfd, 0x04, 0xf4, 0x06, 0xdc, 0xf6, 0x05, 0x09, 0xfa, 0xfe, 0x07, 0x08,
  0x05, 0xf9, 0x09, 0x04, 0x0e, 0x13, 0xff, 0x02, 0x0b, 0xf5, 0x10, 0x07,
  0x02, 0x03, 0xdf, 0xef, 0xf1, 0xfb, 0xf4, 0xff, 0x02, 0x11, 0xfa, 0xf9,
  0x02, 0x02, 0xfc, 0x06, 0xee, 0x01, 0xf5, 0xf5, 0xf1, 0xfb, 0x0b, 0x07,
  0x0b, 0xfc, 0xf4, 0xf5, 0xfd, 0xfb, 0x0f, 0x04, 0x06, 0xfb, 0xfe, 0x10,
  0x02, 0x0b, 0x04, 0x11, 0x09, 0xf9, 0x0e, 0x0b, 0x08, 0xdf, 0xf6, 0xfa,
  0xf5, 0x12, 0x10, 0x03, 0xf9, 0x05, 0xff, 0x05, 0xf8, 0xf7, 0x05, 0x00,
  0x01, 0xf2, 0x04, 0x14, 0x06, 0x01, 0x07, 0x03, 0x08, 0x00, 0x01, 0xf5,
  0x00, 0xf7, 0x18, 0xf3, 0xf4, 0xfb, 0x08, 0x06, 0xf7, 0x08, 0xf9, 0xf7,
  0x0e, 0x00, 0xf5, 0xf3, 0xce, 0x05, 0xe4, 0x0b, 0x00, 0x0e, 0x06, 0x09,
  0xff, 0xfc, 0x0f, 0x0b, 0xf5, 0xfa, 0x0a, 0x14, 0x2a, 0xff, 0x13, 0xf8,
  0x07, 0x03, 0xf5, 0xff, 0xfd, 0x0b, 0xef, 0x03, 0x00, 0x04, 0xf2, 0x0a,
  0xfd, 0xf9, 0xfa, 0x04, 0xf6, 0xfb, 0x01, 0xfd, 0xfb, 0x0b, 0x14, 0x09,
  0x0a, 0x0e, 0xf2, 0xf5, 0x01, 0x04, 0x0d, 0x06, 0xfd, 0x0c, 0x03, 0x0e,
  0xfd, 0xff, 0xf5, 0xfa, 0xea, 0xf2, 0xff, 0x0b, 0x09, 0xfa, 0x0c, 0x07,
  0xfe, 0xfb, 0x06, 0x0e, 0x05, 0xf3, 0x04, 0x0b, 0xf4, 0x0e, 0xfc, 0xef,
  0x08, 0x04, 0x02, 0x0b, 0x04, 0xea, 0xfc, 0xfc, 0xf0, 0x04, 0x00, 0x08,
  0xfa, 0x02, 0xcf, 0x04, 0xfc, 0xf1, 0xf1, 0xfd, 0x01, 0xff, 0x07, 0x0a,
  0x08, 0x06, 0xf8, 0xff, 0x09, 0x08, 0x05, 0xfc, 0x02, 0x00, 0xfc, 0x08,
  0x07, 0xfa, 0x0c, 0x00, 0xf9, 0xf1, 0x0b, 0x12, 0xf3, 0xff, 0x02, 0x0b,
  0x14, 0x0b, 0x00, 0xf4, 0x0c, 0x85, 0x11, 0xf9, 0x03, 0xfd, 0x88, 0x05,
  0x0d, 0x01, 0x1a, 0xf0, 0xf4, 0x09, 0x00, 0x07, 0x05, 0xff, 0xf9, 0x03,
  0xf6, 0xf7, 0x05, 0x05, 0xd9, 0x0a, 0x03, 0xc9, 0xe1, 0xf0, 0xeb, 0xfa,
  0x20, 0xfb, 0x06, 0xfd, 0x0d, 0xf4, 0xfc, 0xfa, 0xc7, 0xf8, 0x06, 0xfd,
  0xfe, 0x0b, 0x17, 0xfc, 0xf9, 0xf2, 0x0c, 0xe5, 0xe7, 0x05, 0xfe, 0x04,
  0xfd, 0x02, 0x14, 0xf1, 0x02, 0x09, 0xfe, 0xf6, 0xfe, 0xee, 0x0e, 0xef,
  0x23, 0x0b, 0x00, 0x14, 0x00, 0x0e, 0xf6, 0x05, 0xf8, 0x0b, 0x05, 0xf1,
  0x08, 0xef, 0xff, 0xfe, 0xff, 0x10, 0xfd, 0x07, 0xf4, 0xfb, 0x09, 0xfa,
  0x06, 0xf4, 0x07, 0xfe, 0x06, 0x00, 0x0b, 0xf5, 0xfe, 0x04, 0x08, 0xf4,
  0x0e, 0x07, 0xf0, 0x05, 0xfc, 0xfd, 0xf6, 0xf9, 0x08, 0xff, 0xfb, 0x00,
  0x08, 0xf7, 0xe4, 0x01, 0x0f, 0x01, 0x0f, 0x07, 0x0f, 0xf6, 0xf8, 0xff,
  0x06, 0xfb, 0x03, 0x07, 0x07, 0xfd, 0x10, 0xf7, 0x08, 0xf4, 0xf7, 0xf1,
  0xfb, 0x08, 0x02, 0xfa, 0x00, 0x05, 0xf9, 0xfd, 0xfe, 0x03, 0x10, 0x07,
  0xff, 0x05, 0x09, 0x01, 0xf4, 0xf5, 0xf7, 0xfd, 0xff, 0xfe, 0x09, 0xff,
  0xfc, 0xf9, 0xf4, 0xf6, 0x01, 0xfe, 0x05, 0x05, 0xfe, 0x05, 0xfe, 0x04,
  0x04, 0xf9, 0x02, 0x00, 0xfe, 0x08, 0xfb, 0x00, 0x02, 0xf7, 0xf4, 0x06,
  0x04, 0xf8, 0xf5, 0xf7, 0xfd, 0xf4, 0xfc, 0xfa, 0xf6, 0xfd, 0x03, 0xf5,
  0xf5, 0x08, 0x09, 0x05, 0xfa, 0xfe, 0x05, 0x0c, 0xf8, 0x0a, 0x08, 0x0b,
  0x0b, 0x04, 0xfb, 0xf8, 0x0b, 0xfc, 0x07, 0x0e, 0xf9, 0x0d, 0xff, 0x08,
  0xe5, 0xfe, 0xf1, 0xed, 0x08, 0x09, 0x06, 0x02, 0xfb, 0x05, 0x04, 0xd1,
  0xff, 0x04, 0xeb, 0x12, 0x08, 0xfe, 0xfd, 0x04, 0xff, 0x10, 0x08, 0x0f,
  0xf5, 0x00, 0xfe, 0xf4, 0xf3, 0x02, 0xff, 0x08, 0x0e, 0x10, 0xfb, 0xfc,
  0xe6, 0xe2, 0x10, 0xf5, 0x0f, 0x01, 0x0b, 0x01, 0xd6, 0x0e, 0xf0, 0xeb,
  0x03, 0x18, 0x00, 0x06, 0x02, 0xf4, 0x07, 0xfe, 0xfd, 0xff, 0x03, 0xfc,
  0xfe, 0x0c, 0x0e, 0x08, 0x00, 0x09, 0x0a, 0x04, 0xfa, 0x0a, 0x0e, 0xf9,
  0xee, 0x04, 0xff, 0xfe, 0xf4, 0x05, 0xf9, 0x0f, 0x08, 0x01, 0xfd, 0x01,
  0x00, 0x07, 0xfb, 0xfb, 0x08, 0x09, 0x07, 0xf8, 0xfc, 0x0e, 0x00, 0xfb,
  0x08, 0x09, 0x03, 0xfc, 0xfa, 0xf0, 0x02, 0xf3, 0x08, 0x05, 0x08, 0xee,
  0xf7, 0x0e, 0xf8, 0xf9, 0xfc, 0xfb, 0x06, 0x0a, 0x0c, 0x06, 0x03, 0xf1,
  0x09, 0xfa, 0x00, 0xfb, 0x04, 0x0b, 0x19, 0xf2, 0xfc, 0xfc, 0xf2, 0x0c,
  0x09, 0x12, 0xf3, 0x04, 0x15, 0x21, 0x0c, 0xd5, 0x06, 0xfc, 0xed, 0x0f,
  0x0b, 0x0b, 0x02, 0xff, 0x81, 0xfb, 0x08, 0x0f, 0x0e, 0x13, 0xc5, 0xca,
  0xf3, 0x12, 0x05, 0x05, 0xfd, 0x1c, 0xe4, 0xf9, 0xe6, 0xd2, 0x0d, 0xe8,
  0xfa, 0xfc, 0x17, 0x0c, 0xf9, 0x00, 0xf6, 0xb4, 0xff, 0x01, 0xac, 0x01,
  0xff, 0x05, 0xf5, 0x1c, 0x0d, 0x0d, 0x0c, 0xee, 0xff, 0x09, 0xf6, 0x09,
  0x07, 0x10, 0xf7, 0x08, 0x05, 0xed, 0xf3, 0x0b, 0xea, 0x0b, 0xf4, 0xf5,
  0x06, 0x01, 0x02, 0xf6, 0x0d, 0xf1, 0x03, 0x0b, 0x01, 0x0d, 0x0b, 0xf7,
  0xfb, 0xf7, 0xfa, 0xff, 0xf3, 0xf0, 0x14, 0x12, 0x0a, 0x02, 0xf3, 0xfe,
  0x06, 0xfe, 0x14, 0xfb, 0x03, 0x03, 0xf3, 0xd7, 0xfd, 0xff, 0xef, 0xfe,
  0xff, 0x00, 0x06, 0xfa, 0x09, 0x85, 0xf1, 0x05, 0xf2, 0x0a, 0x04, 0xed,
  0x11, 0xf3, 0x02, 0xfe, 0xf9, 0xfd, 0x09, 0x0c, 0xfc, 0x03, 0x03, 0xeb,
  0x09, 0x0b, 0xfe, 0x0d, 0x02, 0x10, 0xdf, 0x0c, 0x0d, 0x0d, 0xfe, 0xfc,
  0xfc, 0xf1, 0xfc, 0x04, 0x0e, 0xee, 0xfb, 0xfd, 0xfd, 0x02, 0xe5, 0xf9,
  0x05, 0x09, 0x03, 0xfd, 0x03, 0x09, 0x14, 0x0a, 0xff, 0x01, 0x01, 0x05,
  0xf9, 0x03, 0x0f, 0x01, 0xff, 0x05, 0x19, 0xfc, 0xed, 0x03, 0x06, 0x0c,
  0xbf, 0x0a, 0xf1, 0xbe, 0xfb, 0xe1, 0xf1, 0x05, 0x04, 0x09, 0x0d, 0xfc,
  0xfd, 0x06, 0xfc, 0x06, 0xc9, 0x09, 0x06, 0x0b, 0xf9, 0x00, 0x1d, 0xf7,
  0x0c, 0x09, 0xff, 0xc7, 0xf4, 0xfb, 0xfd, 0x03, 0x04, 0x00, 0xfa, 0xff,
  0xfe, 0x07, 0x02, 0x07, 0x01, 0xec, 0x0b, 0xdd, 0x15, 0x11, 0xee, 0x00,
  0xfc, 0x07, 0x01, 0x10, 0xfe, 0x04, 0x0e, 0x0a, 0x0c, 0xfd, 0x0e, 0x01,
  0xff, 0x10, 0xef, 0xff, 0x07, 0xf9, 0x0f, 0xfb, 0xf7, 0x15, 0x06, 0x09,
  0xe9, 0x0a, 0x05, 0xfa, 0x02, 0xf6, 0xef, 0x02, 0x0d, 0x10, 0x06, 0xcf,
  0xfe, 0x06, 0xef, 0xfc, 0x09, 0x0d, 0x0c, 0x16, 0xfc, 0x01, 0x05, 0x05,
  0xf7, 0xfd, 0xf3, 0xe8, 0x08, 0x03, 0x03, 0x01, 0xfc, 0x07, 0xf9, 0x16,
  0xe7, 0xdb, 0x04, 0xfa, 0x09, 0x09, 0x09, 0xfc, 0xe0, 0x09, 0xf6, 0xe6,
  0x00, 0x02, 0xf7, 0x0f, 0x0e, 0x03, 0x01, 0x06, 0xf6, 0xfc, 0xfd, 0x04,
  0xf7, 0x05, 0x11, 0x05, 0x06, 0xfc, 0xfe, 0x06, 0x07, 0x04, 0x04, 0xf8,
  0xfb, 0x04, 0xef, 0x0b, 0x09, 0x11, 0x10, 0xf4, 0x04, 0x08, 0x0a, 0xf6,
  0x03, 0x0c, 0xf8, 0xf1, 0x00, 0x0a, 0x03, 0x08, 0xff, 0xfd, 0x05, 0xf9,
  0xf9, 0xf0, 0x0c, 0xfa, 0xfe, 0xf8, 0xf3, 0xff, 0xf9, 0x05, 0xfe, 0x09,
  0xff, 0xf5, 0x10, 0xfe, 0x00, 0x01, 0x09, 0xf8, 0xfe, 0x01, 0xff, 0x0c,
  0x0e, 0xf9, 0xf4, 0x00, 0x09, 0xfe, 0xfd, 0x07, 0x07, 0x08, 0xfa, 0xf7,
  0xf9, 0x02, 0x13, 0xde, 0x02, 0xfa, 0xe5, 0x05, 0xfe, 0x05, 0xfe, 0x04,
  0x0b, 0xdd, 0xf4, 0x01, 0xfb, 0xee, 0xf2, 0xf6, 0xf8, 0xf6, 0x00, 0x05,
  0xff, 0xfa, 0x09, 0xf9, 0x0f, 0xfd, 0xda, 0x03, 0xfe, 0x09, 0xf7, 0xd2,
  0xfc, 0xf7, 0x08, 0xe1, 0x09, 0x02, 0xda, 0x00, 0xd3, 0xfd, 0x0b, 0xfd,
  0x09, 0x0e, 0xf5, 0x07, 0x00, 0x00, 0x00, 0x00, 0x26, 0xfd, 0xff, 0xff,
  0x04, 0x00, 0x00, 0x00, 0x00, 0x02, 0x00, 0x00, 0xc9, 0x0e, 0x61, 0xbe,
  0x33, 0xbc, 0x5e, 0xbe, 0x0a, 0x22, 0x99, 0x3b, 0x2c, 0x9e, 0x26, 0x3b,
  0x97, 0xc5, 0x56, 0x3e, 0x39, 0x8f, 0x84, 0x3e, 0x13, 0xa6, 0x5d, 0xbe,
  0x9c, 0x98, 0x5a, 0xbe, 0x9d, 0x34, 0x59, 0xbe, 0x0e, 0x10, 0x4a, 0xbe,
  0x1f, 0x57, 0xc5, 0xbe, 0x3d, 0x9f, 0xb4, 0xbe, 0xf4, 0xa8, 0xaa, 0x3e,
  0x9f, 0xa1, 0x9a, 0x3e, 0x1b, 0x41, 0x0b, 0x3e, 0xf7, 0xf5, 0x66, 0xbe,
  0x55, 0x0c, 0xea, 0xbd, 0x2d, 0x3b, 0x08, 0xbe, 0x7b, 0xb1, 0x05, 0x3e,
  0x36, 0xc6, 0xc7, 0xbe, 0x2d, 0xd9, 0x10, 0x3e, 0x6f, 0x99, 0x9e, 0x3e,
  0xe8, 0x21, 0x9b, 0xbd, 0x43, 0xda, 0xa6, 0xbc, 0x9a, 0x29, 0x9a, 0xbb,
  0x40, 0xed, 0xb5, 0xba, 0xd3, 0xb0, 0xd7, 0xbe, 0xb8, 0xb6, 0x8e, 0x3e,
  0xd9, 0xa6, 0xb6, 0x3c, 0x7d, 0x11, 0x77, 0x3e, 0x74, 0xcc, 0xbd, 0x3e,
  0x7a, 0x49, 0x45, 0x3d, 0xc2, 0x9a, 0x9c, 0xbe, 0xdb, 0xaf, 0x84, 0xbe,
  0x84, 0x9a, 0xe2, 0x3d, 0xb8, 0x4c, 0xd6, 0xbc, 0x8d, 0xfd, 0x82, 0x3c,
  0xf4, 0x5b, 0xdb, 0x3e, 0xf9, 0xec, 0x33, 0xbe, 0xe9, 0xf9, 0xbe, 0xbe,
  0xba, 0xe1, 0xa8, 0xba, 0x35, 0x2e, 0x10, 0x3b, 0x4c, 0x17, 0x77, 0xbd,
  0xd2, 0x6c, 0x14, 0xbd, 0x11, 0x95, 0xc1, 0xbe, 0xdc, 0x51, 0x7b, 0xbd,
  0x32, 0x6d, 0xeb, 0xbe, 0xa3, 0x21, 0xfd, 0x3d, 0xbf, 0xfc, 0xb8, 0xbe,
  0x51, 0x85, 0xda, 0x3d, 0x11, 0xfb, 0xf4, 0x3d, 0x45, 0xe9, 0xca, 0x3d,
  0x66, 0x84, 0x41, 0xbc, 0xa4, 0xcd, 0x9b, 0xbd, 0x33, 0x68, 0x94, 0xbe,
  0xed, 0x60, 0x8b, 0xbe, 0x39, 0x1d, 0x18, 0xbd, 0x33, 0x62, 0xdb, 0xbe,
  0x49, 0xb9, 0x2d, 0x3e, 0xe2, 0xe2, 0x16, 0x3c, 0xa6, 0x56, 0x7f, 0x3c,
  0xe1, 0x26, 0xcc, 0x3e, 0x79, 0xc0, 0xa2, 0xbe, 0x02, 0xa6, 0xc2, 0x3e,
  0x06, 0x88, 0x78, 0x3e, 0x4b, 0x3d, 0x8d, 0x3e, 0x1b, 0xa0, 0x7d, 0xbe,
  0x82, 0xcb, 0x0b, 0x3e, 0x0f, 0x74, 0x13, 0xbe, 0xcb, 0xeb, 0x95, 0xbe,
  0x75, 0xe2, 0xf3, 0xbd, 0x2b, 0x7d, 0x83, 0xbe, 0xfe, 0x13, 0xb9, 0xbe,
  0x23, 0xe2, 0xe1, 0xbd, 0xe6, 0x4b, 0xda, 0xbc, 0x5c, 0x42, 0x78, 0x3c,
  0x20, 0x15, 0x0b, 0xbf, 0x8b, 0x3c, 0x52, 0xbd, 0xd4, 0xde, 0x8b, 0x3e,
  0xe2, 0x4d, 0x05, 0xbc, 0x51, 0x93, 0x31, 0x3e, 0xb4, 0x41, 0x7d, 0xbe,
  0x24, 0xdf, 0x80, 0x3e, 0xb1, 0x79, 0x87, 0x3e, 0x9d, 0x84, 0x05, 0x3f,
  0x5b, 0x5e, 0x86, 0x3e, 0xd3, 0x05, 0xa9, 0xbe, 0x83, 0x12, 0x9d, 0xbe,
  0xae, 0x32, 0x38, 0xbe, 0xb1, 0x19, 0x2c, 0xbe, 0xe7, 0x1d, 0xad, 0xbd,
  0xe3, 0xbd, 0x38, 0xbe, 0x9e, 0x1c, 0x71, 0x3e, 0x19, 0xf8, 0x80, 0x3e,
  0xfe, 0xad, 0x05, 0x3f, 0xa2, 0x8f, 0x82, 0x3e, 0x0b, 0x71, 0x1a, 0x3e,
  0xaf, 0x2c, 0x95, 0xbc, 0xcc, 0x28, 0x80, 0xbc, 0xa8, 0xb4, 0xc5, 0x3c,
  0x07, 0xa8, 0x90, 0xbe, 0x7f, 0xfa, 0x4f, 0x3e, 0xb9, 0xef, 0x0e, 0x3e,
  0x22, 0x90, 0xbf, 0x3e, 0x75, 0x4d, 0xba, 0x3c, 0x68, 0x4f, 0x50, 0xbe,
  0x23, 0x06, 0x81, 0xbe, 0xe9, 0x35, 0x1d, 0x3e, 0x5d, 0xa6, 0x2b, 0x3e,
  0xfd, 0x8b, 0xc7, 0x3e, 0x57, 0x0c, 0x00, 0xbe, 0x5e, 0x12, 0xa5, 0xbe,
  0x77, 0xb4, 0x8e, 0x3e, 0xcf, 0xa9, 0x0c, 0x3e, 0xe6, 0x27, 0xf0, 0x3d,
  0x7a, 0xec, 0xe5, 0xbd, 0x02, 0x0e, 0xaa, 0xbb, 0xb3, 0xa2, 0xa5, 0xbd,
  0x86, 0xf5, 0x8c, 0x3e, 0x4b, 0x22, 0xdd, 0xbe, 0x4e, 0x96, 0x98, 0x3e,
  0x3a, 0x57, 0x96, 0xbd, 0x6e, 0xd3, 0x34, 0x3c, 0xa6, 0x5a, 0x92, 0x3e,
  0xc1, 0x50, 0x3c, 0xbe, 0x4a, 0x14, 0x40, 0xbd, 0xb9, 0x87, 0x9c, 0x3a,
  0x7a, 0x9c, 0xae, 0x3a, 0x00, 0x00, 0x00, 0x00, 0x36, 0xff, 0xff, 0xff,
  0x04, 0x00, 0x00, 0x00, 0x10, 0x00, 0x00, 0x00, 0x47, 0xfa, 0xe3, 0x3e,
  0x35, 0x07, 0x61, 0x3e, 0x64, 0x38, 0xc0, 0x3e, 0xfd, 0xe9, 0x89, 0x3e,
  0x00, 0x00, 0x00, 0x00, 0x56, 0xff, 0xff, 0xff, 0x04, 0x00, 0x00, 0x00,
  0x30, 0x00, 0x00, 0x00, 0xf0, 0xf2, 0xe6, 0x3d, 0x41, 0x7b, 0x12, 0x3e,
  0x94, 0x60, 0x74, 0x3d, 0x62, 0x19, 0xcb, 0x3e, 0x8f, 0x30, 0xc8, 0xbd,
  0x8d, 0xce, 0x29, 0xbd, 0x64, 0x41, 0xd0, 0x3d, 0xa2, 0x1a, 0xae, 0xbd,
  0x9e, 0x57, 0x1a, 0x3e, 0x46, 0xd4, 0x19, 0x3e, 0xce, 0xb1, 0x8d, 0x3e,
  0x28, 0xaf, 0xda, 0x3c, 0x00, 0x00, 0x00, 0x00, 0x96, 0xff, 0xff, 0xff,
  0x04, 0x00, 0x00, 0x00, 0x50, 0x00, 0x00, 0x00, 0x19, 0x03, 0xa6, 0x3d,
  0x17, 0xaf, 0x89, 0x3e, 0xb8, 0x87, 0x5d, 0x3d, 0x16, 0x8e, 0x57, 0xbd,
  0xfa, 0xf7, 0xaa, 0x3e, 0x61, 0x2d, 0x92, 0xbd, 0x63, 0x66, 0xfb, 0xbd,
  0x13, 0x46, 0x82, 0x3e, 0x7a, 0x59, 0x3b, 0x3e, 0xa9, 0x41, 0xd0, 0x3c,
  0x9e, 0x9a, 0x69, 0xbd, 0xb8, 0x99, 0x65, 0xbe, 0x08, 0x95, 0xd3, 0x3d,
  0xa6, 0xfd, 0x7b, 0xbe, 0xe7, 0x82, 0x3e, 0x3c, 0x10, 0xad, 0xa7, 0x3e,
  0xd8, 0x12, 0x50, 0x3e, 0xbe, 0x26, 0x9c, 0xbd, 0x1b, 0xae, 0xd7, 0x3e,
  0x2d, 0x82, 0x2e, 0xbe, 0x00, 0x00, 0x00, 0x00, 0x00, 0x00, 0x00, 0x00,
  0x00, 0x00, 0x00, 0x00, 0x00, 0x00, 0x06, 0x00, 0x08, 0x00, 0x04, 0x00,
  0x06, 0x00, 0x00, 0x00, 0x04, 0x00, 0x00, 0x00, 0x00, 0x01, 0x00, 0x00,
  0x53, 0xf1, 0x1e, 0xbe, 0x76, 0xc1, 0x81, 0xbd, 0xda, 0x4a, 0xfd, 0xbc,
  0x36, 0xb5, 0x1b, 0xbe, 0x9a, 0xda, 0x06, 0x3d, 0x34, 0xad, 0x68, 0xbd,
  0xfa, 0x97, 0x79, 0x3d, 0xc0, 0x03, 0xc0, 0xbd, 0xbd, 0xa5, 0x2d, 0x3e,
  0xb4, 0x13, 0x87, 0xbe, 0x1f, 0x91, 0x65, 0x3d, 0x76, 0x3a, 0x32, 0x3e,
  0x63, 0x01, 0x4d, 0xbd, 0x9c, 0xac, 0xd3, 0xbd, 0x5d, 0x5e, 0x65, 0xbe,
  0x11, 0x40, 0xf1, 0xbd, 0x70, 0x82, 0x9d, 0xbe, 0xbb, 0xf8, 0x8c, 0x3d,
  0x6e, 0x04, 0x95, 0xbe, 0x30, 0x26, 0x7c, 0xbd, 0x3a, 0xc8, 0x0f, 0xbd,
  0x7d, 0x10, 0x5e, 0x3e, 0x01, 0xcd, 0x81, 0xbe, 0xbc, 0xd6, 0x87, 0xbe,
  0xcc, 0xd5, 0x73, 0xbe, 0xa8, 0x0b, 0xc0, 0x3d, 0x3d, 0xf8, 0x29, 0xbd,
  0x1e, 0x42, 0x19, 0xbe, 0x91, 0x6c, 0xe5, 0x3e, 0x03, 0x44, 0xd4, 0xbd,
  0x80, 0xa8, 0x7f, 0xbe, 0x9f, 0xd8, 0x7f, 0xbe, 0x5d, 0xb0, 0x6f, 0xbe,
  0x5a, 0x8e, 0x4e, 0x3e, 0x22, 0x56, 0xa6, 0x3d, 0xe4, 0xfa, 0x10, 0xbd,
  0xc9, 0xc5, 0x3e, 0x3d, 0x0e, 0xd8, 0x32, 0x3c, 0xd5, 0x85, 0x08, 0x3e,
  0x24, 0xdc, 0x7d, 0xbe, 0x46, 0x66, 0xa2, 0xbd, 0xc3, 0x52, 0x37, 0xbe,
  0xa4, 0x33, 0x5a, 0x3d, 0x91, 0x8b, 0x3d, 0xbd, 0x31, 0x1a, 0x9c, 0x3e,
  0x1c, 0x1f, 0xff, 0xbc, 0x92, 0x5c, 0x3a, 0xbe, 0x62, 0xb9, 0x8f, 0x3d,
  0xd3, 0x0e, 0x88, 0xbd, 0x63, 0xc3, 0xc5, 0x3d, 0x8c, 0xf8, 0x5a, 0xbe,
  0xff, 0x8c, 0x26, 0x3e, 0x6c, 0xcf, 0xaf, 0xbe, 0x9f, 0xc1, 0x85, 0xbd,
  0x78, 0x38, 0xaf, 0x3d, 0x26, 0x17, 0xe5, 0x3b, 0x02, 0xd1, 0x0e, 0x3d,
  0x1b, 0x0e, 0xb3, 0xbe, 0x2b, 0xcb, 0xe4, 0x3d, 0x53, 0xb0, 0x75, 0xbe,
  0x83, 0x0c, 0xa8, 0xbe, 0xa5, 0x58, 0xa3, 0x3e, 0x8a, 0x96, 0xe1, 0x3d,
  0xf7, 0x8a, 0xbb, 0xbc, 0x00, 0x00, 0x00, 0x00, 0x00, 0x00, 0x00, 0x00,
  0x00, 0x00, 0x00, 0x00, 0xb4, 0xf9, 0xff, 0xff, 0x00, 0x00, 0x00, 0x00,
  0x00, 0x00, 0x00, 0x00, 0x00, 0x00, 0x00, 0x00, 0xc4, 0xf9, 0xff, 0xff,
  0x0f, 0x00, 0x00, 0x00, 0x4d, 0x4c, 0x49, 0x52, 0x20, 0x43, 0x6f, 0x6e,
  0x76, 0x65, 0x72, 0x74, 0x65, 0x64, 0x2e, 0x00, 0x01, 0x00, 0x00, 0x00,
  0x14, 0x00, 0x00, 0x00, 0x00, 0x00, 0x0e, 0x00, 0x18, 0x00, 0x04, 0x00,
  0x08, 0x00, 0x0c, 0x00, 0x10, 0x00, 0x14, 0x00, 0x0e, 0x00, 0x00, 0x00,
  0x38, 0x01, 0x00, 0x00, 0x2c, 0x01, 0x00, 0x00, 0x20, 0x01, 0x00, 0x00,
  0x14, 0x00, 0x00, 0x00, 0x04, 0x00, 0x00, 0x00, 0x04, 0x00, 0x00, 0x00,
  0x6d, 0x61, 0x69, 0x6e, 0x00, 0x00, 0x00, 0x00, 0x04, 0x00, 0x00, 0x00,
  0xc8, 0x00, 0x00, 0x00, 0x80, 0x00, 0x00, 0x00, 0x38, 0x00, 0x00, 0x00,
  0x04, 0x00, 0x00, 0x00, 0x9a, 0xff, 0xff, 0xff, 0x00, 0x00, 0x00, 0x08,
  0x18, 0x00, 0x00, 0x00, 0x0c, 0x00, 0x00, 0x00, 0x04, 0x00, 0x00, 0x00,
  0x40, 0xfa, 0xff, 0xff, 0x01, 0x00, 0x00, 0x00, 0x0c, 0x00, 0x00, 0x00,
  0x03, 0x00, 0x00, 0x00, 0x0b, 0x00, 0x00, 0x00, 0x08, 0x00, 0x00, 0x00,
  0x04, 0x00, 0x00, 0x00, 0xca, 0xff, 0xff, 0xff, 0x00, 0x00, 0x00, 0x08,
  0x1c, 0x00, 0x00, 0x00, 0x10, 0x00, 0x00, 0x00, 0x04, 0x00, 0x00, 0x00,
  0x76, 0xff, 0xff, 0xff, 0x00, 0x00, 0x00, 0x01, 0x01, 0x00, 0x00, 0x00,
  0x0b, 0x00, 0x00, 0x00, 0x03, 0x00, 0x00, 0x00, 0x0a, 0x00, 0x00, 0x00,
  0x07, 0x00, 0x00, 0x00, 0x03, 0x00, 0x00, 0x00, 0x00, 0x00, 0x0e, 0x00,
  0x14, 0x00, 0x00, 0x00, 0x08, 0x00, 0x0c, 0x00, 0x07, 0x00, 0x10, 0x00,
  0x0e, 0x00, 0x00, 0x00, 0x00, 0x00, 0x00, 0x08, 0x1c, 0x00, 0x00, 0x00,
  0x10, 0x00, 0x00, 0x00, 0x04, 0x00, 0x00, 0x00, 0xba, 0xff, 0xff, 0xff,
  0x00, 0x00, 0x00, 0x01, 0x01, 0x00, 0x00, 0x00, 0x0a, 0x00, 0x00, 0x00,
  0x03, 0x00, 0x00, 0x00, 0x09, 0x00, 0x00, 0x00, 0x06, 0x00, 0x00, 0x00,
  0x02, 0x00, 0x00, 0x00, 0x00, 0x00, 0x0e, 0x00, 0x16, 0x00, 0x00, 0x00,
  0x08, 0x00, 0x0c, 0x00, 0x07, 0x00, 0x10, 0x00, 0x0e, 0x00, 0x00, 0x00,
  0x00, 0x00, 0x00, 0x08, 0x24, 0x00, 0x00, 0x00, 0x18, 0x00, 0x00, 0x00,
  0x0c, 0x00, 0x00, 0x00, 0x00, 0x00, 0x06, 0x00, 0x08, 0x00, 0x07, 0x00,
  0x06, 0x00, 0x00, 0x00, 0x00, 0x00, 0x00, 0x01, 0x01, 0x00, 0x00, 0x00,
  0x09, 0x00, 0x00, 0x00, 0x03, 0x00, 0x00, 0x00, 0x00, 0x00, 0x00, 0x00,
  0x05, 0x00, 0x00, 0x00, 0x01, 0x00, 0x00, 0x00, 0x01, 0x00, 0x00, 0x00,
  0x0c, 0x00, 0x00, 0x00, 0x01, 0x00, 0x00, 0x00, 0x00, 0x00, 0x00, 0x00,
  0x0d, 0x00, 0x00, 0x00, 0xa8, 0x04, 0x00, 0x00, 0x34, 0x04, 0x00, 0x00,
  0xc4, 0x03, 0x00, 0x00, 0x64, 0x03, 0x00, 0x00, 0x04, 0x03, 0x00, 0x00,
  0xbc, 0x02, 0x00, 0x00, 0x48, 0x02, 0x00, 0x00, 0xf0, 0x01, 0x00, 0x00,
  0xa8, 0x01, 0x00, 0x00, 0x34, 0x01, 0x00, 0x00, 0xc0, 0x00, 0x00, 0x00,
  0x4c, 0x00, 0x00, 0x00, 0x04, 0x00, 0x00, 0x00, 0xa0, 0xfb, 0xff, 0xff,
  0x34, 0x00, 0x00, 0x00, 0x0d, 0x00, 0x00, 0x00, 0x1c, 0x00, 0x00, 0x00,
  0x14, 0x00, 0x00, 0x00, 0x04, 0x00, 0x00, 0x00, 0x02, 0x00, 0x00, 0x00,
  0xff, 0xff, 0xff, 0xff, 0x04, 0x00, 0x00, 0x00, 0x8c, 0xfb, 0xff, 0xff,
  0x08, 0x00, 0x00, 0x00, 0x49, 0x64, 0x65, 0x6e, 0x74, 0x69, 0x74, 0x79,
  0x00, 0x00, 0x00, 0x00, 0x02, 0x00, 0x00, 0x00, 0x01, 0x00, 0x00, 0x00,
  0x04, 0x00, 0x00, 0x00, 0xe4, 0xfb, 0xff, 0xff, 0x60, 0x00, 0x00, 0x00,
  0x0c, 0x00, 0x00, 0x00, 0x1c, 0x00, 0x00, 0x00, 0x14, 0x00, 0x00, 0x00,
  0x04, 0x00, 0x00, 0x00, 0x02, 0x00, 0x00, 0x00, 0xff, 0xff, 0xff, 0xff,
  0x0c, 0x00, 0x00, 0x00, 0xd0, 0xfb, 0xff, 0xff, 0x36, 0x00, 0x00, 0x00,
  0x73, 0x65, 0x71, 0x75, 0x65, 0x6e, 0x74, 0x69, 0x61, 0x6c, 0x5f, 0x31,
  0x2f, 0x64, 0x65, 0x6e, 0x73, 0x65, 0x5f, 0x36, 0x2f, 0x52, 0x65, 0x6c,
  0x75, 0x3b, 0x73, 0x65, 0x71, 0x75, 0x65, 0x6e, 0x74, 0x69, 0x61, 0x6c,
  0x5f, 0x31, 0x2f, 0x64, 0x65, 0x6e, 0x73, 0x65, 0x5f, 0x36, 0x2f, 0x42,
  0x69, 0x61, 0x73, 0x41, 0x64, 0x64, 0x00, 0x00, 0x02, 0x00, 0x00, 0x00,
  0x01, 0x00, 0x00, 0x00, 0x0c, 0x00, 0x00, 0x00, 0x54, 0xfc, 0xff, 0xff,
  0x60, 0x00, 0x00, 0x00, 0x0b, 0x00, 0x00, 0x00, 0x1c, 0x00, 0x00, 0x00,
  0x14, 0x00, 0x00, 0x00, 0x04, 0x00, 0x00, 0x00, 0x02, 0x00, 0x00, 0x00,
  0xff, 0xff, 0xff, 0xff, 0x14, 0x00, 0x00, 0x00, 0x40, 0xfc, 0xff, 0xff,
  0x36, 0x00, 0x00, 0x00, 0x73, 0x65, 0x71, 0x75, 0x65, 0x6e, 0x74, 0x69,
  0x61, 0x6c, 0x5f, 0x31, 0x2f, 0x64, 0x65, 0x6e, 0x73, 0x65, 0x5f, 0x35,
  0x2f, 0x52, 0x65, 0x6c, 0x75, 0x3b, 0x73, 0x65, 0x71, 0x75, 0x65, 0x6e,
  0x74, 0x69, 0x61, 0x6c, 0x5f, 0x31, 0x2f, 0x64, 0x65, 0x6e, 0x73, 0x65,
  0x5f, 0x35, 0x2f, 0x42, 0x69, 0x61, 0x73, 0x41, 0x64, 0x64, 0x00, 0x00,
  0x02, 0x00, 0x00, 0x00, 0x01, 0x00, 0x00, 0x00, 0x14, 0x00, 0x00, 0x00,
  0xc4, 0xfc, 0xff, 0xff, 0x60, 0x00, 0x00, 0x00, 0x0a, 0x00, 0x00, 0x00,
  0x1c, 0x00, 0x00, 0x00, 0x14, 0x00, 0x00, 0x00, 0x04, 0x00, 0x00, 0x00,
  0x02, 0x00, 0x00, 0x00, 0xff, 0xff, 0xff, 0xff, 0x40, 0x00, 0x00, 0x00,
  0xb0, 0xfc, 0xff, 0xff, 0x36, 0x00, 0x00, 0x00, 0x73, 0x65, 0x71, 0x75,
  0x65, 0x6e, 0x74, 0x69, 0x61, 0x6c, 0x5f, 0x31, 0x2f, 0x64, 0x65, 0x6e,
  0x73, 0x65, 0x5f, 0x34, 0x2f, 0x52, 0x65, 0x6c, 0x75, 0x3b, 0x73, 0x65,
  0x71, 0x75, 0x65, 0x6e, 0x74, 0x69, 0x61, 0x6c, 0x5f, 0x31, 0x2f, 0x64,
  0x65, 0x6e, 0x73, 0x65, 0x5f, 0x34, 0x2f, 0x42, 0x69, 0x61, 0x73, 0x41,
  0x64, 0x64, 0x00, 0x00, 0x02, 0x00, 0x00, 0x00, 0x01, 0x00, 0x00, 0x00,
  0x40, 0x00, 0x00, 0x00, 0x9e, 0xfd, 0xff, 0xff, 0x34, 0x00, 0x00, 0x00,
  0x09, 0x00, 0x00, 0x00, 0x0c, 0x00, 0x00, 0x00, 0x04, 0x00, 0x00, 0x00,
  0x10, 0xfd, 0xff, 0xff, 0x1b, 0x00, 0x00, 0x00, 0x73, 0x65, 0x71, 0x75,
  0x65, 0x6e, 0x74, 0x69, 0x61, 0x6c, 0x5f, 0x31, 0x2f, 0x64, 0x65, 0x6e,
  0x73, 0x65, 0x5f, 0x37, 0x2f, 0x4d, 0x61, 0x74, 0x4d, 0x75, 0x6c, 0x00,
  0x02, 0x00, 0x00, 0x00, 0x04, 0x00, 0x00, 0x00, 0x0c, 0x00, 0x00, 0x00,
  0xe2, 0xfd, 0xff, 0xff, 0x34, 0x00, 0x00, 0x00, 0x08, 0x00, 0x00, 0x00,
  0x0c, 0x00, 0x00, 0x00, 0x04, 0x00, 0x00, 0x00, 0x54, 0xfd, 0xff, 0xff,
  0x1b, 0x00, 0x00, 0x00, 0x73, 0x65, 0x71, 0x75, 0x65, 0x6e, 0x74, 0x69,
  0x61, 0x6c, 0x5f, 0x31, 0x2f, 0x64, 0x65, 0x6e, 0x73, 0x65, 0x5f, 0x36,
  0x2f, 0x4d, 0x61, 0x74, 0x4d, 0x75, 0x6c, 0x00, 0x02, 0x00, 0x00, 0x00,
  0x0c, 0x00, 0x00, 0x00, 0x14, 0x00, 0x00, 0x00, 0x00, 0x00, 0x0e, 0x00,
  0x18, 0x00, 0x08, 0x00, 0x07, 0x00, 0x0c, 0x00, 0x10, 0x00, 0x14, 0x00,
  0x0e, 0x00, 0x00, 0x00, 0x00, 0x00, 0x00, 0x09, 0x5c, 0x00, 0x00, 0x00,
  0x07, 0x00, 0x00, 0x00, 0x34, 0x00, 0x00, 0x00, 0x10, 0x00, 0x00, 0x00,
  0x0c, 0x00, 0x0c, 0x00, 0x00, 0x00, 0x00, 0x00, 0x04, 0x00, 0x08, 0x00,
  0x0c, 0x00, 0x00, 0x00, 0x14, 0x00, 0x00, 0x00, 0x04, 0x00, 0x00, 0x00,
  0x01, 0x00, 0x00, 0x00, 0x00, 0x00, 0x00, 0x00, 0x00, 0x00, 0x00, 0x00,
  0x01, 0x00, 0x00, 0x00, 0x9a, 0xd3, 0xb4, 0x3c, 0x1b, 0x00, 0x00, 0x00,
  0x73, 0x65, 0x71, 0x75, 0x65, 0x6e, 0x74, 0x69, 0x61, 0x6c, 0x5f, 0x31,
  0x2f, 0x64, 0x65, 0x6e, 0x73, 0x65, 0x5f, 0x35, 0x2f, 0x4d, 0x61, 0x74,
  0x4d, 0x75, 0x6c, 0x00, 0x02, 0x00, 0x00, 0x00, 0x14, 0x00, 0x00, 0x00,
  0x40, 0x00, 0x00, 0x00, 0xa6, 0xfe, 0xff, 0xff, 0x34, 0x00, 0x00, 0x00,
  0x06, 0x00, 0x00, 0x00, 0x0c, 0x00, 0x00, 0x00, 0x04, 0x00, 0x00, 0x00,
  0x18, 0xfe, 0xff, 0xff, 0x1b, 0x00, 0x00, 0x00, 0x73, 0x65, 0x71, 0x75,
  0x65, 0x6e, 0x74, 0x69, 0x61, 0x6c, 0x5f, 0x31, 0x2f, 0x64, 0x65, 0x6e,
  0x73, 0x65, 0x5f, 0x34, 0x2f, 0x4d, 0x61, 0x74, 0x4d, 0x75, 0x6c, 0x00,
  0x02, 0x00, 0x00, 0x00, 0x40, 0x00, 0x00, 0x00, 0x02, 0x00, 0x00, 0x00,
  0xea, 0xfe, 0xff, 0xff, 0x50, 0x00, 0x00, 0x00, 0x05, 0x00, 0x00, 0x00,
  0x0c, 0x00, 0x00, 0x00, 0x04, 0x00, 0x00, 0x00, 0x5c, 0xfe, 0xff, 0xff,
  0x34, 0x00, 0x00, 0x00, 0x73, 0x65, 0x71, 0x75, 0x65, 0x6e, 0x74, 0x69,
  0x61, 0x6c, 0x5f, 0x31, 0x2f, 0x64, 0x65, 0x6e, 0x73, 0x65, 0x5f, 0x37,
  0x2f, 0x42, 0x69, 0x61, 0x73, 0x41, 0x64, 0x64, 0x2f, 0x52, 0x65, 0x61,
  0x64, 0x56, 0x61, 0x72, 0x69, 0x61, 0x62, 0x6c, 0x65, 0x4f, 0x70, 0x2f,
  0x72, 0x65, 0x73, 0x6f, 0x75, 0x72, 0x63, 0x65, 0x00, 0x00, 0x00, 0x00,
  0x01, 0x00, 0x00, 0x00, 0x04, 0x00, 0x00, 0x00, 0x46, 0xff, 0xff, 0xff,
  0x50, 0x00, 0x00, 0x00, 0x04, 0x00, 0x00, 0x00, 0x0c, 0x00, 0x00, 0x00,
  0x04, 0x00, 0x00, 0x00, 0xb8, 0xfe, 0xff, 0xff, 0x34, 0x00, 0x00, 0x00,
  0x73, 0x65, 0x71, 0x75, 0x65, 0x6e, 0x74, 0x69, 0x61, 0x6c, 0x5f, 0x31,
  0x2f, 0x64, 0x65, 0x6e, 0x73, 0x65, 0x5f, 0x36, 0x2f, 0x42, 0x69, 0x61,
  0x73, 0x41, 0x64, 0x64, 0x2f, 0x52, 0x65, 0x61, 0x64, 0x56, 0x61, 0x72,
  0x69, 0x61, 0x62, 0x6c, 0x65, 0x4f, 0x70, 0x2f, 0x72, 0x65, 0x73, 0x6f,
  0x75, 0x72, 0x63, 0x65, 0x00, 0x00, 0x00, 0x00, 0x01, 0x00, 0x00, 0x00,
  0x0c, 0x00, 0x00, 0x00, 0xa2, 0xff, 0xff, 0xff, 0x50, 0x00, 0x00, 0x00,
  0x03, 0x00, 0x00, 0x00, 0x0c, 0x00, 0x00, 0x00, 0x04, 0x00, 0x00, 0x00,
  0x14, 0xff, 0xff, 0xff, 0x34, 0x00, 0x00, 0x00, 0x73, 0x65, 0x71, 0x75,
  0x65, 0x6e, 0x74, 0x69, 0x61, 0x6c, 0x5f, 0x31, 0x2f, 0x64, 0x65, 0x6e,
  0x73, 0x65, 0x5f, 0x35, 0x2f, 0x42, 0x69, 0x61, 0x73, 0x41, 0x64, 0x64,
  0x2f, 0x52, 0x65, 0x61, 0x64, 0x56, 0x61, 0x72, 0x69, 0x61, 0x62, 0x6c,
  0x65, 0x4f, 0x70, 0x2f, 0x72, 0x65, 0x73, 0x6f, 0x75, 0x72, 0x63, 0x65,
  0x00, 0x00, 0x00, 0x00, 0x01, 0x00, 0x00, 0x00, 0x14, 0x00, 0x00, 0x00,
  0x00, 0x00, 0x0e, 0x00, 0x14, 0x00, 0x04, 0x00, 0x00, 0x00, 0x08, 0x00,
  0x0c, 0x00, 0x10, 0x00, 0x0e, 0x00, 0x00, 0x00, 0x50, 0x00, 0x00, 0x00,
  0x02, 0x00, 0x00, 0x00, 0x0c, 0x00, 0x00, 0x00, 0x04, 0x00, 0x00, 0x00,
  0x80, 0xff, 0xff, 0xff, 0x34, 0x00, 0x00, 0x00, 0x73, 0x65, 0x71, 0x75,
  0x65, 0x6e, 0x74, 0x69, 0x61, 0x6c, 0x5f, 0x31, 0x2f, 0x64, 0x65, 0x6e,
  0x73, 0x65, 0x5f, 0x34, 0x2f, 0x42, 0x69, 0x61, 0x73, 0x41, 0x64, 0x64,
  0x2f, 0x52, 0x65, 0x61, 0x64, 0x56, 0x61, 0x72, 0x69, 0x61, 0x62, 0x6c,
  0x65, 0x4f, 0x70, 0x2f, 0x72, 0x65, 0x73, 0x6f, 0x75, 0x72, 0x63, 0x65,
  0x00, 0x00, 0x00, 0x00, 0x01, 0x00, 0x00, 0x00, 0x40, 0x00, 0x00, 0x00,
  0x14, 0x00, 0x18, 0x00, 0x04, 0x00, 0x00, 0x00, 0x08, 0x00, 0x0c, 0x00,
  0x10, 0x00, 0x00, 0x00, 0x00, 0x00, 0x14, 0x00, 0x14, 0x00, 0x00, 0x00,
  0x3c, 0x00, 0x00, 0x00, 0x01, 0x00, 0x00, 0x00, 0x20, 0x00, 0x00, 0x00,
  0x18, 0x00, 0x00, 0x00, 0x04, 0x00, 0x00, 0x00, 0x02, 0x00, 0x00, 0x00,
  0xff, 0xff, 0xff, 0xff, 0x02, 0x00, 0x00, 0x00, 0x04, 0x00, 0x04, 0x00,
  0x04, 0x00, 0x00, 0x00, 0x0d, 0x00, 0x00, 0x00, 0x64, 0x65, 0x6e, 0x73,
  0x65, 0x5f, 0x34, 0x5f, 0x69, 0x6e, 0x70, 0x75, 0x74, 0x00, 0x00, 0x00,
  0x02, 0x00, 0x00, 0x00, 0x01, 0x00, 0x00, 0x00, 0x02, 0x00, 0x00, 0x00,
  0x01, 0x00, 0x00, 0x00, 0x10, 0x00, 0x00, 0x00, 0x00, 0x00, 0x0a, 0x00,
  0x0c, 0x00, 0x07, 0x00, 0x00, 0x00, 0x08, 0x00, 0x0a, 0x00, 0x00, 0x00,
  0x00, 0x00, 0x00, 0x09, 0x03, 0x00, 0x00, 0x00
};

#endif //VENTI_MODEL_H