#ifndef VENTI_MODEL_H
#define VENTI_MODEL_H


unsigned int venti_model_len = 5264;
unsigned char venti_model[] = {
 0x24, 0x00, 0x00, 0x00, 0x54, 0x46, 0x4c, 0x33, 0x00, 0x00, 0x00, 0x00,
  0x00, 0x00, 0x00, 0x00, 0x00, 0x00, 0x12, 0x00, 0x1c, 0x00, 0x04, 0x00,
  0x08, 0x00, 0x0c, 0x00, 0x10, 0x00, 0x14, 0x00, 0x00, 0x00, 0x18, 0x00,
  0x12, 0x00, 0x00, 0x00, 0x03, 0x00, 0x00, 0x00, 0x44, 0x14, 0x00, 0x00,
  0x14, 0x0e, 0x00, 0x00, 0xfc, 0x0d, 0x00, 0x00, 0x3c, 0x00, 0x00, 0x00,
  0x04, 0x00, 0x00, 0x00, 0x01, 0x00, 0x00, 0x00, 0x0c, 0x00, 0x00, 0x00,
  0x08, 0x00, 0x0c, 0x00, 0x04, 0x00, 0x08, 0x00, 0x08, 0x00, 0x00, 0x00,
  0x08, 0x00, 0x00, 0x00, 0x0e, 0x00, 0x00, 0x00, 0x13, 0x00, 0x00, 0x00,
  0x6d, 0x69, 0x6e, 0x5f, 0x72, 0x75, 0x6e, 0x74, 0x69, 0x6d, 0x65, 0x5f,
  0x76, 0x65, 0x72, 0x73, 0x69, 0x6f, 0x6e, 0x00, 0x0f, 0x00, 0x00, 0x00,
  0xb4, 0x0d, 0x00, 0x00, 0xa0, 0x0d, 0x00, 0x00, 0x04, 0x0d, 0x00, 0x00,
  0xa0, 0x0c, 0x00, 0x00, 0x6c, 0x0c, 0x00, 0x00, 0x48, 0x0c, 0x00, 0x00,
  0x34, 0x0b, 0x00, 0x00, 0x20, 0x03, 0x00, 0x00, 0x0c, 0x01, 0x00, 0x00,
  0x78, 0x00, 0x00, 0x00, 0x6c, 0x00, 0x00, 0x00, 0x58, 0x00, 0x00, 0x00,
  0x44, 0x00, 0x00, 0x00, 0x30, 0x00, 0x00, 0x00, 0x04, 0x00, 0x00, 0x00,
  0x36, 0xf3, 0xff, 0xff, 0x04, 0x00, 0x00, 0x00, 0x10, 0x00, 0x00, 0x00,
  0x31, 0x2e, 0x35, 0x2e, 0x30, 0x00, 0x00, 0x00, 0x00, 0x00, 0x00, 0x00,
  0x00, 0x00, 0x00, 0x00, 0x00, 0x00, 0x00, 0x00, 0x00, 0x00, 0x00, 0x00,
  0x00, 0x00, 0x00, 0x00, 0x94, 0xec, 0xff, 0xff, 0x00, 0x00, 0x00, 0x00,
  0x00, 0x00, 0x00, 0x00, 0x00, 0x00, 0x00, 0x00, 0xa4, 0xec, 0xff, 0xff,
  0x00, 0x00, 0x00, 0x00, 0x00, 0x00, 0x00, 0x00, 0x00, 0x00, 0x00, 0x00,
  0xb4, 0xec, 0xff, 0xff, 0x00, 0x00, 0x00, 0x00, 0x00, 0x00, 0x00, 0x00,
  0x00, 0x00, 0x00, 0x00, 0xc4, 0xec, 0xff, 0xff, 0x00, 0x00, 0x00, 0x00,
  0x96, 0xf3, 0xff, 0xff, 0x04, 0x00, 0x00, 0x00, 0x80, 0x00, 0x00, 0x00,
  0x75, 0xb6, 0xcd, 0xbd, 0x98, 0x21, 0x86, 0xbf, 0x94, 0x30, 0x57, 0x3f,
  0x63, 0x40, 0xe3, 0x3e, 0x0c, 0x79, 0x28, 0x3e, 0xc1, 0x1f, 0x30, 0x3f,
  0x94, 0x3a, 0x7e, 0x3f, 0x31, 0xb6, 0x69, 0xbf, 0x14, 0x1c, 0xd9, 0xbf,
  0x5d, 0x86, 0xa7, 0x3f, 0xd2, 0xf0, 0x60, 0xbf, 0x0a, 0x9b, 0x33, 0x3e,
  0x14, 0x94, 0x51, 0xbf, 0x9d, 0x50, 0x58, 0x3e, 0xd6, 0x12, 0x7e, 0xbf,
  0xcf, 0x30, 0x71, 0x3f, 0xc3, 0x58, 0xd6, 0x3f, 0xd8, 0xb3, 0xaf, 0x3d,
  0x2d, 0xdf, 0x90, 0xbd, 0x4c, 0xf9, 0x82, 0xbd, 0x44, 0x45, 0x5d, 0x3f,
  0xf6, 0x7e, 0xbf, 0x3e, 0x93, 0x41, 0x74, 0xbd, 0x09, 0xc8, 0x93, 0x3d,
  0x0a, 0xe8, 0x02, 0xbe, 0x68, 0xbf, 0xef, 0xbf, 0x8a, 0xb7, 0xd6, 0xbc,
  0xce, 0x00, 0x61, 0x3f, 0x10, 0x30, 0xa2, 0x3e, 0xcd, 0xcb, 0xa8, 0xbe,
  0xe7, 0xb1, 0x0f, 0x3e, 0x3d, 0x66, 0xd1, 0x3a, 0x00, 0x00, 0x00, 0x00,
  0x26, 0xf4, 0xff, 0xff, 0x04, 0x00, 0x00, 0x00, 0x00, 0x02, 0x00, 0x00,
  0x52, 0xcc, 0xec, 0xbb, 0xee, 0x56, 0x37, 0xc0, 0x1d, 0xe2, 0x1a, 0xc0,
  0x45, 0x5a, 0xd4, 0xbe, 0xc6, 0xd5, 0x80, 0x3d, 0x9a, 0x20, 0xa8, 0xbd,
  0x86, 0xef, 0x50, 0xbd, 0x52, 0x20, 0x46, 0xbc, 0x97, 0xe6, 0xa5, 0x3e,
  0x3f, 0x79, 0x56, 0xbf, 0xc0, 0xc4, 0x4f, 0xbe, 0x0d, 0x9b, 0x4c, 0xbe,
  0x27, 0x15, 0x08, 0x3e, 0xb2, 0x37, 0x31, 0x3e, 0xe6, 0x78, 0x88, 0x3e,
  0x44, 0x11, 0xd3, 0x3c, 0x70, 0x1f, 0x2c, 0xbd, 0xc4, 0x86, 0x5c, 0x3f,
  0x47, 0x91, 0xe7, 0xbc, 0xbd, 0xbf, 0x27, 0x3e, 0x6f, 0xb1, 0xd9, 0xbe,
  0x26, 0x92, 0x9e, 0xbf, 0x6b, 0x0c, 0x8a, 0x3e, 0xa5, 0xbd, 0x05, 0xc0,
  0x48, 0x4a, 0x94, 0xbe, 0xd9, 0xb5, 0xf3, 0xbe, 0x4c, 0x11, 0xf0, 0x3e,
  0xa2, 0xc2, 0xbf, 0xbe, 0x7b, 0x21, 0x2a, 0x3d, 0x1e, 0x4d, 0x18, 0x3e,
  0x79, 0xfb, 0x87, 0xbd, 0xe7, 0x23, 0x81, 0x3f, 0xe1, 0x31, 0x00, 0xbf,
  0x21, 0x9d, 0x11, 0x3f, 0xb6, 0xaf, 0x03, 0x3f, 0x1f, 0x11, 0xee, 0xbe,
  0x64, 0xc8, 0xa5, 0x3d, 0xed, 0x46, 0x61, 0xbc, 0x4e, 0xd7, 0xca, 0x3c,
  0x2b, 0x37, 0x20, 0x3f, 0xbb, 0x1c, 0xdb, 0x3e, 0xee, 0x6d, 0x6e, 0xbe,
  0xcc, 0xd4, 0xeb, 0xbe, 0x69, 0xeb, 0x83, 0xbd, 0x6b, 0x20, 0x88, 0xbe,
  0x09, 0x8e, 0x7b, 0x3e, 0x86, 0xbf, 0x5a, 0x3f, 0xc2, 0x89, 0x93, 0x3f,
  0x9c, 0xef, 0x87, 0xbd, 0xa4, 0xfa, 0x34, 0xbe, 0x6b, 0x96, 0x17, 0x3f,
  0x4b, 0xf6, 0xb1, 0xbb, 0xa7, 0x4e, 0xb6, 0x3e, 0xe2, 0xf7, 0x86, 0xbe,
  0x7f, 0x6b, 0xdc, 0x3e, 0xe7, 0xf5, 0x2d, 0xbf, 0x42, 0x79, 0xc6, 0xbd,
  0x1b, 0xb7, 0x54, 0xbd, 0x74, 0xf0, 0xb8, 0xbe, 0x5b, 0x7e, 0x4b, 0xbe,
  0x4f, 0x34, 0xf1, 0x3e, 0x9b, 0xee, 0x3b, 0xbe, 0xc3, 0x07, 0x6b, 0x3e,
  0xc4, 0x8c, 0x7e, 0x3c, 0x12, 0x8c, 0x3b, 0x3f, 0xfb, 0xc7, 0x5b, 0xbe,
  0x0e, 0x07, 0x93, 0xbe, 0xb4, 0xfe, 0x26, 0x3f, 0x86, 0x64, 0x91, 0x3d,
  0xbf, 0x4f, 0xef, 0x3d, 0x94, 0x0c, 0x19, 0xbf, 0xea, 0x56, 0x80, 0x3e,
  0x77, 0x17, 0x9a, 0xbe, 0x28, 0xbc, 0xa7, 0x3e, 0xa0, 0xd2, 0x93, 0xbd,
  0xb4, 0x3c, 0x66, 0xbe, 0xa5, 0x51, 0x3a, 0x3e, 0x89, 0x5c, 0x39, 0x3e,
  0x18, 0x92, 0x5f, 0xbf, 0x55, 0x86, 0x3f, 0xbf, 0x21, 0xf6, 0x6f, 0xbe,
  0xf1, 0x12, 0xb0, 0x3e, 0x1c, 0x6c, 0x3f, 0xbe, 0x75, 0xef, 0x0b, 0x3f,
  0xf6, 0xee, 0x8e, 0x3e, 0x05, 0x4f, 0x33, 0xbf, 0x0d, 0xbe, 0x5d, 0x3e,
  0xb8, 0xde, 0x16, 0xc0, 0xcd, 0x5a, 0xea, 0x3e, 0xab, 0xd5, 0xd4, 0x3e,
  0x80, 0x27, 0x2e, 0x3c, 0xc2, 0xd7, 0x64, 0xbd, 0x02, 0xdd, 0xeb, 0x3e,
  0x09, 0xc2, 0x81, 0x3e, 0xed, 0xaa, 0x87, 0xbf, 0x9c, 0x22, 0x6b, 0xbe,
  0xb7, 0x99, 0x5a, 0x3d, 0x33, 0x76, 0x27, 0xbc, 0x7d, 0xb8, 0xfb, 0x3d,
  0xd6, 0x01, 0x08, 0xbf, 0xed, 0xa3, 0x77, 0xbf, 0x91, 0x56, 0xb7, 0x3e,
  0xfe, 0xde, 0x6d, 0xbe, 0xd8, 0x50, 0x30, 0xbf, 0x3c, 0x43, 0xf3, 0x3e,
  0x71, 0x47, 0xc3, 0x3d, 0xa8, 0xcb, 0xfc, 0xbe, 0x09, 0x2a, 0x83, 0xbe,
  0x42, 0xde, 0xcc, 0xbe, 0x94, 0x9a, 0x24, 0xbf, 0x30, 0x8e, 0xb7, 0x3c,
  0xd5, 0x8d, 0x40, 0xbe, 0xf8, 0x9d, 0x46, 0x3e, 0x41, 0x35, 0x13, 0x3f,
  0x79, 0x43, 0x23, 0x3f, 0x03, 0xa9, 0xa1, 0xbf, 0xf5, 0xa8, 0xb0, 0x3d,
  0x93, 0x31, 0x42, 0xbd, 0x97, 0x02, 0xa2, 0xbe, 0x86, 0x2b, 0x8e, 0x3f,
  0x0f, 0x7b, 0x3c, 0x3f, 0x1e, 0x8c, 0x8e, 0x3e, 0x98, 0x35, 0x78, 0x3e,
  0x05, 0xf9, 0x82, 0xbe, 0x4f, 0xce, 0x1b, 0xbd, 0xf5, 0xf8, 0x1c, 0xbf,
  0xd2, 0xa0, 0x32, 0x3f, 0x62, 0x6f, 0x81, 0x3f, 0x00, 0x00, 0x00, 0x00,
  0x36, 0xf6, 0xff, 0xff, 0x04, 0x00, 0x00, 0x00, 0x00, 0x08, 0x00, 0x00,
  0xd6, 0xb7, 0x9f, 0x3e, 0xd4, 0xd6, 0x08, 0xbe, 0x2c, 0x3b, 0x00, 0x3d,
  0x31, 0xee, 0xd2, 0xbe, 0x0a, 0xde, 0xbb, 0xbd, 0x76, 0x6e, 0x08, 0xbe,
  0x39, 0x31, 0x45, 0xbf, 0xcc, 0x07, 0x1b, 0xbe, 0xf2, 0xd2, 0x86, 0xbe,
  0xe9, 0x46, 0xa5, 0x3e, 0xfa, 0xdf, 0x97, 0x3d, 0x4c, 0xb2, 0x77, 0xbe,
  0x55, 0x2c, 0xd4, 0xbc, 0x19, 0x7b, 0x91, 0x3e, 0x99, 0xcd, 0xa1, 0x3c,
  0xad, 0x6a, 0x2f, 0x3e, 0x1d, 0x51, 0xfb, 0x3e, 0x2b, 0xdf, 0x0c, 0xbe,
  0x6f, 0xe1, 0xb9, 0xbe, 0xee, 0x87, 0x18, 0x3f, 0x8c, 0xd0, 0xbd, 0xbd,
  0x68, 0x5a, 0x82, 0x3e, 0x06, 0x3f, 0x95, 0xbe, 0xb8, 0x0a, 0x86, 0xbb,
  0x3c, 0x1f, 0x1c, 0xbe, 0x85, 0x9f, 0x1f, 0x3e, 0x4d, 0xc0, 0xd5, 0x3e,
  0xab, 0xf8, 0x34, 0x3f, 0xb1, 0x9d, 0x06, 0x3e, 0x33, 0x9d, 0xd9, 0xbe,
  0x82, 0xff, 0xec, 0xbd, 0xa5, 0x93, 0x0b, 0x3f, 0xa9, 0x68, 0x0f, 0xbe,
  0xdd, 0xbf, 0x7e, 0x3e, 0x36, 0xd1, 0x3a, 0x3d, 0x90, 0xd6, 0x01, 0x3e,
  0xfd, 0x48, 0x8a, 0x3e, 0xd4, 0x6d, 0x97, 0x3e, 0xf4, 0xaa, 0xb4, 0x3c,
  0xb3, 0x7e, 0x72, 0x3d, 0xa4, 0xe7, 0xc2, 0x3e, 0x14, 0xb0, 0x9d, 0x3e,
  0xd9, 0x9a, 0xd1, 0xbf, 0xe5, 0x9c, 0x1a, 0xbf, 0x82, 0xad, 0x8c, 0x3d,
  0x17, 0x8d, 0x99, 0xbe, 0xf7, 0x51, 0xb4, 0x3e, 0x3a, 0x91, 0xc4, 0x3e,
  0xa0, 0xde, 0x7a, 0x3e, 0xc9, 0x80, 0x72, 0xbe, 0xe7, 0xcb, 0x84, 0x3e,
  0xed, 0x18, 0xa8, 0x3e, 0x0e, 0xcb, 0x0d, 0x3f, 0x64, 0x2c, 0x42, 0x3d,
  0xa2, 0xc6, 0x18, 0x3e, 0xbd, 0x6e, 0x2b, 0x3e, 0x45, 0xf4, 0x27, 0x3f,
  0x4b, 0x9c, 0x89, 0xbf, 0xe0, 0x33, 0xb7, 0xbe, 0x6d, 0x46, 0x38, 0x3e,
  0xeb, 0xc8, 0xad, 0x3e, 0x18, 0xcf, 0xa9, 0x3e, 0x35, 0x81, 0x03, 0x3d,
  0xba, 0x26, 0x3a, 0x3e, 0x42, 0xad, 0xe3, 0xbe, 0x67, 0xf6, 0x24, 0x3e,
  0x58, 0x9f, 0x20, 0xbe, 0x56, 0xa1, 0xa6, 0x3e, 0xb8, 0x58, 0x1c, 0x3f,
  0x59, 0x93, 0x9e, 0x3e, 0xc6, 0xd5, 0xbb, 0x3c, 0x9b, 0x18, 0xf6, 0x3e,
  0x30, 0x9c, 0x8e, 0x3e, 0x71, 0x7d, 0x5a, 0x39, 0x5d, 0x56, 0x23, 0xbf,
  0xa3, 0xda, 0xb7, 0xbe, 0xb6, 0x60, 0x56, 0x3e, 0x78, 0xf8, 0xfe, 0xbe,
  0xe3, 0x1e, 0x62, 0x3f, 0x09, 0x24, 0x34, 0xc0, 0x74, 0x30, 0x57, 0x3e,
  0x18, 0xe3, 0xe1, 0xbe, 0x62, 0x52, 0xaf, 0x3e, 0x0f, 0x06, 0x77, 0x3e,
  0x8f, 0x21, 0xbd, 0xbf, 0x62, 0x12, 0xa5, 0x3d, 0x23, 0xea, 0xfa, 0x3d,
  0xc6, 0xd8, 0x68, 0x3d, 0xa4, 0x42, 0x3b, 0x3e, 0x00, 0xda, 0x11, 0xbf,
  0xf8, 0x0e, 0xa2, 0xbd, 0x95, 0x50, 0x44, 0xbe, 0x80, 0x33, 0x05, 0xbf,
  0x5d, 0x43, 0xbd, 0x3e, 0x73, 0xb7, 0x83, 0x3f, 0xeb, 0x36, 0x74, 0xbe,
  0x9a, 0x77, 0x79, 0x3f, 0xb7, 0xc6, 0xa6, 0xbd, 0xdf, 0x79, 0xcf, 0x3e,
  0x42, 0x3a, 0x8d, 0xbf, 0x96, 0xdb, 0xac, 0xbf, 0x28, 0x31, 0x39, 0xba,
  0x3c, 0x5d, 0x21, 0x3f, 0xc5, 0x7e, 0xea, 0x3d, 0x00, 0xf1, 0xb1, 0xbe,
  0xa4, 0x02, 0x39, 0xbd, 0xcb, 0xec, 0xbc, 0x3e, 0x12, 0xcd, 0x16, 0x3f,
  0x40, 0x6c, 0x51, 0xbf, 0x69, 0xcb, 0x06, 0xbe, 0x70, 0xc0, 0xb6, 0xbe,
  0x39, 0x85, 0x65, 0x3e, 0x11, 0x98, 0xc8, 0xbe, 0x68, 0x8e, 0x0d, 0x3f,
  0xc2, 0x4c, 0xbd, 0xbc, 0x91, 0x47, 0x8d, 0xbe, 0x54, 0x02, 0x6c, 0xbd,
  0x2a, 0x01, 0xb8, 0x3d, 0xf4, 0x36, 0x85, 0xbe, 0xc3, 0xb8, 0x6e, 0x3e,
  0x04, 0x60, 0x94, 0xbd, 0x2e, 0x00, 0x10, 0xbe, 0x08, 0x49, 0x5c, 0x3e,
  0xbf, 0xa4, 0x06, 0xc0, 0x6e, 0x7f, 0xbc, 0x3e, 0x95, 0xe8, 0xa8, 0xbe,
  0x79, 0x80, 0x49, 0xbe, 0xf8, 0x0f, 0xe4, 0xbb, 0x27, 0x6f, 0x8e, 0x3d,
  0x97, 0xfc, 0xe7, 0xbd, 0x2d, 0x46, 0x9c, 0xbc, 0xd6, 0x08, 0x79, 0x3d,
  0x1c, 0xcf, 0x19, 0x3e, 0xf6, 0x3c, 0x34, 0xbe, 0x97, 0xde, 0x05, 0xbf,
  0xb7, 0x3b, 0x47, 0x3e, 0x4b, 0x9a, 0x89, 0xbe, 0x86, 0xb2, 0x0b, 0x3c,
  0xdd, 0x75, 0xd1, 0xbc, 0xab, 0x1f, 0xba, 0xbd, 0x39, 0x58, 0x5a, 0xbe,
  0xbf, 0xd6, 0xdb, 0x3c, 0x0d, 0x33, 0x87, 0xbe, 0x1d, 0x51, 0x24, 0xbf,
  0x31, 0x3c, 0x9e, 0x3b, 0xe7, 0x11, 0xd8, 0xbd, 0x92, 0xbb, 0xaf, 0x3e,
  0x3a, 0xea, 0x5c, 0x3e, 0x02, 0x35, 0x1e, 0xbf, 0xeb, 0x3f, 0x4d, 0xbe,
  0x29, 0x12, 0xf7, 0x3d, 0x99, 0x02, 0xb7, 0xbd, 0x1e, 0xde, 0x58, 0x3e,
  0xcd, 0x54, 0x4b, 0x3f, 0xae, 0x80, 0x00, 0x3f, 0x3a, 0x88, 0x33, 0xbe,
  0x0f, 0x3c, 0x26, 0xbe, 0x39, 0xd0, 0xdf, 0x3e, 0x30, 0x97, 0x37, 0x3e,
  0x56, 0xcd, 0xdb, 0x3d, 0xb5, 0xb0, 0xbe, 0xbe, 0x32, 0xd5, 0x89, 0x3e,
  0xbb, 0x59, 0x6b, 0xbe, 0xa1, 0x33, 0xad, 0x3e, 0x67, 0xc2, 0x62, 0x3f,
  0xcf, 0x9a, 0x22, 0x3f, 0xdf, 0xa4, 0x17, 0xbe, 0x62, 0xf7, 0xc0, 0x3e,
  0x13, 0x0b, 0xab, 0x3e, 0xc6, 0x3f, 0x37, 0xbe, 0x37, 0xd8, 0x83, 0x3e,
  0xad, 0x5c, 0x6f, 0xbe, 0x8a, 0x02, 0x90, 0xbd, 0x52, 0x7f, 0x2f, 0x3d,
  0x0f, 0xaf, 0xe6, 0x3e, 0xe7, 0x5d, 0xde, 0xbd, 0xa6, 0xf3, 0x2a, 0xbe,
  0x3d, 0xc2, 0x50, 0xbc, 0x23, 0xa1, 0x12, 0x3e, 0xec, 0x95, 0x3f, 0x3e,
  0xe1, 0x43, 0x95, 0x3c, 0x3c, 0x60, 0xb9, 0x3d, 0x80, 0xad, 0x0c, 0x3f,
  0x4a, 0x0a, 0xf8, 0x3e, 0xcc, 0xe0, 0x48, 0xbf, 0xcb, 0x49, 0x91, 0x3c,
  0xbc, 0xca, 0x86, 0xbe, 0x3a, 0x4d, 0x71, 0xbe, 0xa2, 0xfb, 0x48, 0x3c,
  0x01, 0xd5, 0x17, 0x3e, 0xfe, 0x6c, 0x2c, 0x3d, 0x89, 0x9e, 0xf6, 0xbc,
  0xc0, 0xd4, 0xd3, 0xbd, 0x2d, 0x81, 0xbd, 0x3e, 0x47, 0xde, 0xd3, 0x3e,
  0x7d, 0x27, 0x02, 0x3e, 0x08, 0xdb, 0xca, 0xbe, 0x84, 0xb0, 0xd3, 0x3e,
  0xcd, 0x94, 0x0a, 0x3f, 0x79, 0xcf, 0xbe, 0xbe, 0x35, 0xb7, 0x1c, 0xc0,
  0x5b, 0x77, 0x34, 0xbe, 0x84, 0x94, 0x9c, 0x3c, 0x6e, 0xa2, 0xaa, 0x3e,
  0xec, 0x53, 0xd7, 0xbe, 0x5d, 0x07, 0x9d, 0xbc, 0xba, 0x7d, 0x15, 0xbb,
  0xe8, 0x3b, 0xb3, 0x3d, 0xd1, 0x61, 0x80, 0x3e, 0xe0, 0xf7, 0x97, 0x3e,
  0x21, 0x90, 0x4e, 0x3d, 0x0b, 0xaa, 0x06, 0x3e, 0x99, 0x91, 0x13, 0xbf,
  0xcb, 0xf6, 0xab, 0x3e, 0x9f, 0x5f, 0xc4, 0x3d, 0xca, 0x25, 0x32, 0xc0,
  0x07, 0xa3, 0x03, 0xbe, 0xfb, 0xb0, 0xcc, 0xbe, 0xa0, 0xc1, 0xd3, 0xbe,
  0x79, 0x9c, 0xc2, 0xbe, 0x29, 0xbf, 0xc1, 0x3e, 0xfa, 0x44, 0x1d, 0x3e,
  0xff, 0x85, 0xec, 0x3e, 0x28, 0x00, 0xf2, 0xbf, 0x4d, 0x5f, 0xba, 0xbf,
  0x0e, 0x5d, 0x7c, 0xbe, 0x8b, 0x56, 0x22, 0xbf, 0x34, 0xc3, 0x2b, 0xbf,
  0xd0, 0x32, 0xb3, 0x3b, 0x94, 0x8b, 0x9d, 0x3d, 0x9e, 0x16, 0x39, 0xbd,
  0xee, 0xb6, 0xc5, 0xbe, 0x54, 0x3a, 0xe2, 0xbc, 0xed, 0x67, 0x5f, 0xbe,
  0xc7, 0x63, 0xbe, 0x3d, 0xe7, 0xa6, 0xaf, 0xbd, 0x33, 0x65, 0x75, 0xbf,
  0x99, 0xb7, 0x25, 0x3e, 0x44, 0x52, 0x5c, 0x3f, 0x43, 0x01, 0xca, 0xbc,
  0x3a, 0xbe, 0x5d, 0x3f, 0x4e, 0x09, 0x35, 0xbf, 0xf7, 0x11, 0xac, 0xbf,
  0x00, 0x15, 0x84, 0x3c, 0x5d, 0x16, 0x8a, 0xbe, 0x83, 0xd6, 0x44, 0x3e,
  0x80, 0xd5, 0x53, 0xbd, 0xdc, 0xd4, 0x32, 0xbc, 0x43, 0xae, 0x0b, 0xbe,
  0xd5, 0x3f, 0x7a, 0x3e, 0xcc, 0xf7, 0xef, 0xbe, 0x76, 0xf0, 0x48, 0x3f,
  0x14, 0xdb, 0xcc, 0x3e, 0x31, 0x31, 0xc4, 0xbe, 0x47, 0x01, 0x07, 0x3e,
  0xce, 0xd7, 0x19, 0xbe, 0xad, 0x79, 0xd7, 0x3d, 0x7f, 0x90, 0x88, 0x3e,
  0xd1, 0xbc, 0xd6, 0xbe, 0xd2, 0x89, 0x03, 0xbe, 0xa7, 0x2d, 0x42, 0x3f,
  0x58, 0xe8, 0x56, 0x3c, 0x73, 0xc0, 0xb4, 0xbe, 0x19, 0xdf, 0x92, 0x3e,
  0x2d, 0x6a, 0x82, 0x3d, 0x20, 0xc3, 0x20, 0xbe, 0x4d, 0x27, 0xa0, 0xbe,
  0xe4, 0x47, 0x1f, 0xbf, 0x73, 0x51, 0xca, 0xbe, 0x0e, 0x66, 0xa7, 0xbe,
  0xe5, 0x6c, 0x25, 0x3f, 0x21, 0x17, 0x04, 0x3f, 0x2b, 0xba, 0x50, 0x3e,
  0x6e, 0xf3, 0x9f, 0xbe, 0x7c, 0x0f, 0x8b, 0x3c, 0x80, 0x5e, 0x91, 0x3e,
  0x80, 0x5b, 0x4e, 0x3f, 0x46, 0x7e, 0xac, 0xbe, 0x4c, 0x28, 0x8f, 0x3d,
  0xd6, 0xe6, 0xd7, 0x3d, 0xa6, 0xfb, 0x47, 0x39, 0x4e, 0x55, 0x1f, 0xbe,
  0x64, 0xeb, 0xa8, 0x3d, 0x92, 0xae, 0x8b, 0xbe, 0xfb, 0x39, 0x15, 0x3e,
  0xe9, 0x2d, 0xdc, 0x3d, 0x67, 0xb7, 0xdd, 0x3e, 0xf0, 0xd0, 0x36, 0x3e,
  0xfb, 0xa1, 0xea, 0x3e, 0xf7, 0xf1, 0xa0, 0x3e, 0x11, 0xca, 0xe8, 0x3e,
  0x86, 0x67, 0x8b, 0xbd, 0x75, 0x8c, 0x15, 0xbe, 0x20, 0x69, 0xef, 0x3e,
  0xdb, 0xa1, 0x9a, 0x3d, 0x58, 0x1a, 0x98, 0x3e, 0xa6, 0xef, 0x47, 0xbf,
  0xc7, 0x56, 0x8b, 0x3e, 0x8e, 0x9f, 0x55, 0xbe, 0xc1, 0x28, 0x88, 0xbe,
  0x2d, 0x8b, 0xcd, 0xbe, 0x93, 0xa8, 0x39, 0xbe, 0x6b, 0x3e, 0x5e, 0xbe,
  0x35, 0xcb, 0x27, 0xbe, 0xd7, 0x81, 0xbe, 0x3e, 0x7b, 0xb2, 0x83, 0xbe,
  0xe9, 0x1b, 0x85, 0x3e, 0x2d, 0xd9, 0xbb, 0xbd, 0xe9, 0xd5, 0x7e, 0x3d,
  0x7c, 0x36, 0x43, 0x3d, 0x95, 0x85, 0x2c, 0x3f, 0xea, 0xdd, 0xe4, 0xbe,
  0xe4, 0x04, 0x89, 0x3e, 0x41, 0x78, 0x01, 0x3f, 0x01, 0x38, 0xf9, 0x3e,
  0x26, 0x52, 0xd0, 0x3e, 0xd0, 0x8b, 0xf2, 0xbe, 0x36, 0x3a, 0x1a, 0xbe,
  0xeb, 0xf1, 0x2c, 0xbe, 0x7a, 0xcc, 0x91, 0xbe, 0xc4, 0x47, 0xb2, 0xbd,
  0x65, 0x57, 0xa8, 0x3e, 0xfc, 0x24, 0xd4, 0x3d, 0xe6, 0xcb, 0x01, 0xbe,
  0x32, 0x19, 0x56, 0x3e, 0xc2, 0x9f, 0x28, 0x3e, 0x0a, 0x21, 0x45, 0x3e,
  0x6a, 0x31, 0x88, 0xbe, 0xa0, 0xca, 0x66, 0x3c, 0x1d, 0x0f, 0x70, 0xbe,
  0x22, 0x1b, 0x26, 0x3e, 0x92, 0x13, 0x6e, 0x3e, 0x60, 0x70, 0x03, 0xbc,
  0x80, 0x96, 0xda, 0x3c, 0xab, 0x35, 0x4f, 0xbe, 0xcb, 0x01, 0xa8, 0xbe,
  0x7c, 0x1a, 0xff, 0x3d, 0x2c, 0xef, 0xb0, 0xbe, 0x32, 0xe1, 0x9d, 0xbe,
  0xb9, 0x70, 0x12, 0xbe, 0x00, 0xdc, 0xb9, 0x3c, 0x20, 0x00, 0x0d, 0xbd,
  0xa0, 0xf1, 0x39, 0xbd, 0x00, 0x0a, 0x76, 0xbe, 0x5c, 0xc5, 0x04, 0x3e,
  0x84, 0x35, 0xa5, 0xbe, 0x9c, 0x43, 0x8a, 0xbe, 0x80, 0x43, 0x02, 0xbd,
  0x31, 0xf8, 0x90, 0x3e, 0xe0, 0x3c, 0x76, 0x3d, 0x4e, 0x21, 0x8c, 0xbe,
  0x67, 0x1e, 0x42, 0xbe, 0x85, 0xeb, 0x31, 0xbe, 0x94, 0x54, 0xbd, 0xbd,
  0x9c, 0xd8, 0x08, 0xbc, 0x81, 0x7f, 0xd9, 0x3e, 0xfc, 0x13, 0x15, 0x3e,
  0x4f, 0x8d, 0x73, 0xbd, 0x61, 0x74, 0xfd, 0x3e, 0x86, 0xb4, 0x9f, 0x3e,
  0x76, 0x89, 0x02, 0x3f, 0x8c, 0x51, 0x5f, 0x3e, 0x0e, 0xdb, 0x9c, 0xbe,
  0x92, 0x15, 0x55, 0x3e, 0x22, 0x11, 0x92, 0x3e, 0xd9, 0xb5, 0xc6, 0x3d,
  0xbe, 0x12, 0x93, 0x3e, 0x2a, 0x35, 0x55, 0xbc, 0xd3, 0x46, 0x27, 0x3e,
  0x78, 0xab, 0x2d, 0x3d, 0xd1, 0x97, 0x20, 0xbe, 0x9f, 0x15, 0x55, 0x3e,
  0x2f, 0xfd, 0xb1, 0x3e, 0x7d, 0x3f, 0xae, 0x3e, 0xe8, 0x99, 0xa2, 0x3d,
  0x70, 0xc8, 0xc2, 0x3b, 0x5a, 0xbf, 0x84, 0xbd, 0x3d, 0x98, 0x02, 0xbe,
  0xe4, 0x18, 0xa9, 0xbe, 0xb1, 0xf3, 0x1e, 0xbf, 0x51, 0x96, 0x23, 0x3f,
  0x7f, 0x14, 0x31, 0x3d, 0x06, 0x45, 0xc4, 0xbd, 0x35, 0x98, 0x7e, 0xbd,
  0x79, 0xd2, 0x70, 0x3e, 0xdb, 0xe7, 0xa1, 0x3e, 0x67, 0x50, 0x1c, 0x3d,
  0x8a, 0x98, 0x26, 0x3e, 0x21, 0xef, 0xf7, 0xbe, 0xba, 0x12, 0x9e, 0x3e,
  0x9d, 0xa2, 0x21, 0x3d, 0x13, 0xc5, 0xff, 0x3c, 0xb8, 0xd1, 0xe6, 0xbd,
  0x26, 0xff, 0x0d, 0x3e, 0xbb, 0xbb, 0xc6, 0x3e, 0x84, 0xcf, 0xb8, 0x3e,
  0x5e, 0x84, 0xc4, 0xbd, 0x44, 0x63, 0x35, 0x3d, 0xea, 0x3f, 0xa0, 0xbe,
  0xcb, 0xd4, 0x8c, 0xbe, 0xef, 0x4b, 0x01, 0x3e, 0x3d, 0xbb, 0x74, 0x3d,
  0x55, 0xbf, 0xab, 0x3d, 0x23, 0x21, 0xd3, 0xbe, 0x98, 0xa9, 0x3a, 0xbe,
  0x54, 0x5b, 0xcc, 0xbc, 0x43, 0x7b, 0x93, 0x3e, 0x88, 0x81, 0x3c, 0xbe,
  0xbf, 0x92, 0x34, 0x3e, 0x31, 0x1d, 0x29, 0x3f, 0x85, 0x3d, 0xe3, 0x3e,
  0x37, 0x50, 0xd4, 0x3d, 0x98, 0x07, 0xf0, 0xbe, 0xb2, 0x94, 0xc4, 0x3c,
  0x67, 0xf5, 0xb0, 0x3e, 0x6b, 0xc6, 0xe8, 0xbc, 0xc2, 0xee, 0xdb, 0x3d,
  0xf4, 0x59, 0x26, 0x3f, 0x9f, 0x65, 0xa5, 0x3e, 0x02, 0x7f, 0x3e, 0x3e,
  0xda, 0xdf, 0x29, 0x3d, 0x1b, 0x9e, 0xaa, 0x3d, 0xff, 0x73, 0x7f, 0x3e,
  0x54, 0xfa, 0x09, 0x3f, 0x98, 0xa4, 0x74, 0xbd, 0xe1, 0x56, 0xa2, 0x3e,
  0x4a, 0x87, 0x3b, 0xbf, 0x98, 0x3e, 0xbe, 0x3e, 0x0e, 0x75, 0x88, 0x3e,
  0xba, 0xb3, 0x15, 0x3e, 0x85, 0xb9, 0xb5, 0xbd, 0xd1, 0x3b, 0xcf, 0x3d,
  0x90, 0xfc, 0x75, 0x3e, 0xb9, 0x44, 0xbd, 0x3d, 0xc3, 0x09, 0xbe, 0x3d,
  0x14, 0x90, 0x96, 0xbe, 0xa1, 0x25, 0xf5, 0xbe, 0x86, 0xb0, 0xa6, 0x3d,
  0x9b, 0x5d, 0x87, 0xbd, 0xbe, 0x9b, 0xae, 0xbe, 0x08, 0x55, 0xc5, 0x3e,
  0x43, 0xfa, 0x84, 0x3f, 0x24, 0xf7, 0x7e, 0xbe, 0x70, 0xc5, 0xf8, 0x3e,
  0x3e, 0x1c, 0x19, 0xbf, 0x23, 0xba, 0x25, 0xbe, 0x64, 0x81, 0x4f, 0xbc,
  0xa5, 0x13, 0xd8, 0xbd, 0x86, 0x42, 0x0e, 0xbf, 0x17, 0xfa, 0x6e, 0x3e,
  0x51, 0xee, 0x40, 0xbf, 0x54, 0x96, 0xe8, 0x3c, 0x79, 0xae, 0x37, 0x3f,
  0xfb, 0x3b, 0x19, 0x3d, 0x61, 0x85, 0xab, 0xbe, 0x9d, 0xf7, 0x82, 0x3d,
  0xc1, 0x97, 0xfe, 0x3d, 0x2e, 0x1f, 0xb3, 0x3e, 0xf6, 0x2f, 0xec, 0xbc,
  0xdc, 0x19, 0x27, 0xbf, 0xf5, 0x0a, 0x1c, 0xbf, 0xec, 0x16, 0x0e, 0x3f,
  0x41, 0xde, 0x4c, 0x3f, 0x75, 0x0e, 0xb7, 0x3c, 0xe9, 0x88, 0x1f, 0xbf,
  0xad, 0x3a, 0x59, 0x3d, 0x33, 0x22, 0xa2, 0xbe, 0x11, 0x9e, 0x44, 0x3e,
  0xfd, 0x54, 0x0f, 0x3e, 0xf0, 0xdc, 0x96, 0xba, 0x1f, 0x7f, 0xbe, 0x3d,
  0xde, 0x15, 0x9b, 0x3e, 0xb6, 0xd5, 0xc5, 0xbc, 0xa4, 0xef, 0x2d, 0xbf,
  0x09, 0x2d, 0x15, 0x3e, 0xd0, 0x0a, 0xe7, 0xbd, 0x7f, 0x9f, 0x6e, 0xbe,
  0x95, 0x12, 0x9a, 0xbd, 0xdd, 0x58, 0x56, 0x3e, 0x28, 0xbb, 0x40, 0x3e,
  0xde, 0x55, 0xd7, 0xbc, 0x57, 0xa9, 0x6e, 0xbe, 0x5d, 0x46, 0x14, 0xc0,
  0x3d, 0x21, 0x99, 0x3e, 0x8f, 0x33, 0x6d, 0x3d, 0x96, 0xcc, 0x54, 0xbd,
  0x83, 0x31, 0xb3, 0xbe, 0x83, 0x42, 0xa3, 0xbe, 0x60, 0x75, 0xc8, 0xbe,
  0x09, 0x97, 0x42, 0x3e, 0xa9, 0x30, 0xbe, 0x3e, 0xdc, 0x35, 0xa0, 0xbc,
  0x6b, 0x84, 0xd7, 0xbe, 0x3d, 0x27, 0x3f, 0xbb, 0xed, 0x69, 0x6d, 0x3e,
  0xc8, 0x4f, 0x55, 0x3d, 0x8e, 0x75, 0xe2, 0xbe, 0xd6, 0xa0, 0x24, 0x3f,
  0x83, 0x5b, 0x2c, 0x3f, 0xf6, 0x47, 0x3f, 0xc0, 0xe0, 0x7e, 0x89, 0xbe,
  0xc1, 0x42, 0x42, 0x3d, 0xe8, 0xa2, 0x9d, 0xbe, 0x5d, 0xf0, 0x15, 0x3e,
  0xb6, 0x4c, 0x9e, 0xbd, 0x09, 0xcc, 0x8d, 0x3e, 0x6a, 0x82, 0x50, 0x3f,
  0xb9, 0x58, 0x21, 0xbf, 0xd4, 0x12, 0x01, 0x3f, 0xa9, 0x6e, 0x52, 0xbe,
  0xf8, 0x8e, 0x44, 0x3e, 0x5c, 0x0d, 0x65, 0x3e, 0x00, 0x00, 0x00, 0x00,
  0x46, 0xfe, 0xff, 0xff, 0x04, 0x00, 0x00, 0x00, 0x00, 0x01, 0x00, 0x00,
  0x9a, 0x71, 0xfa, 0xbe, 0x6e, 0x5e, 0x48, 0xbe, 0x1f, 0xca, 0x64, 0x3c,
  0xff, 0x48, 0x72, 0x3e, 0x5c, 0xc2, 0x48, 0xbe, 0xcf, 0x2c, 0xf2, 0xbe,
  0xa3, 0x47, 0xfd, 0xbe, 0x14, 0x19, 0xa2, 0xbd, 0x2d, 0x9c, 0x05, 0xbf,
  0x45, 0x2e, 0x04, 0xbf, 0x79, 0x65, 0x95, 0x3d, 0x25, 0xec, 0xe9, 0xbd,
  0x4f, 0xb5, 0x0c, 0xbe, 0x6c, 0xdf, 0xcb, 0xbe, 0xf8, 0x1e, 0x30, 0x3d,
  0xc0, 0xbe, 0xe1, 0xbd, 0xe0, 0xd2, 0x18, 0x3f, 0x6c, 0xca, 0x2f, 0xbd,
  0x0e, 0x53, 0x5a, 0xbd, 0xc5, 0x42, 0x4f, 0x3e, 0x1e, 0x49, 0x8b, 0x3e,
  0xa6, 0x00, 0x34, 0x3f, 0x09, 0xeb, 0x83, 0xbe, 0x44, 0x86, 0x09, 0xbf,
  0x7e, 0x77, 0x30, 0xbe, 0x1a, 0xac, 0x60, 0xbd, 0xec, 0x6e, 0xb3, 0xbd,
  0x58, 0xa0, 0x64, 0x3e, 0x66, 0x79, 0xf7, 0xbe, 0x9d, 0x1c, 0x18, 0xbf,
  0xcd, 0x79, 0x17, 0x3d, 0x92, 0x4c, 0x06, 0x3f, 0x74, 0xd6, 0xbb, 0xbd,
  0x10, 0xd7, 0xda, 0xbc, 0x74, 0x78, 0x52, 0xbe, 0xaf, 0xaa, 0x8d, 0x3c,
  0x01, 0xba, 0x92, 0xbe, 0x30, 0x07, 0x37, 0xbb, 0x35, 0xf7, 0xe0, 0xbe,
  0xd9, 0x00, 0xd0, 0xbe, 0x4e, 0xeb, 0xb4, 0xbb, 0x02, 0x30, 0x99, 0x3e,
  0x1d, 0x8e, 0xcf, 0xbd, 0x56, 0xbd, 0xfa, 0x3d, 0x0b, 0xb8, 0x91, 0x3e,
  0xb0, 0xfa, 0x0d, 0xbf, 0xff, 0xbd, 0x29, 0x3f, 0x68, 0x2a, 0x24, 0x3e,
  0x92, 0x71, 0xb3, 0x3e, 0x65, 0xbf, 0x58, 0x3b, 0x00, 0x2b, 0x9c, 0x3e,
  0xbc, 0x9b, 0x90, 0x3e, 0xaf, 0x2c, 0x2c, 0xbd, 0xae, 0xc3, 0x9e, 0xbe,
  0xbb, 0xd0, 0x2a, 0xbf, 0x20, 0x2b, 0xc7, 0xbe, 0xbc, 0x5a, 0xb9, 0xbd,
  0x0b, 0xeb, 0x62, 0x3e, 0x67, 0x40, 0xdd, 0xbe, 0x8b, 0xc4, 0x31, 0x3e,
  0xff, 0x63, 0x85, 0xbc, 0x76, 0xf4, 0xa8, 0x3d, 0xb2, 0x4d, 0x71, 0x3e,
  0x75, 0x1e, 0x64, 0xbd, 0x00, 0x00, 0x00, 0x00, 0x56, 0xff, 0xff, 0xff,
  0x04, 0x00, 0x00, 0x00, 0x10, 0x00, 0x00, 0x00, 0xda, 0x84, 0x32, 0x3c,
  0xc6, 0x18, 0xdc, 0x3e, 0xa8, 0x7f, 0x0b, 0x3d, 0x48, 0xa8, 0x71, 0x3e,
  0x00, 0x00, 0x00, 0x00, 0x76, 0xff, 0xff, 0xff, 0x04, 0x00, 0x00, 0x00,
  0x20, 0x00, 0x00, 0x00, 0x79, 0xe3, 0x7f, 0x3e, 0x22, 0x97, 0x86, 0xbd,
  0xd3, 0xc6, 0x48, 0xbe, 0xe1, 0x09, 0xc8, 0x3e, 0x30, 0x16, 0x52, 0x3e,
  0xe5, 0x30, 0xb4, 0x3d, 0x88, 0x3c, 0x11, 0x3e, 0x52, 0xda, 0x86, 0xbd,
  0x00, 0x00, 0x00, 0x00, 0xa6, 0xff, 0xff, 0xff, 0x04, 0x00, 0x00, 0x00,
  0x40, 0x00, 0x00, 0x00, 0xa5, 0x96, 0xad, 0xbd, 0xdf, 0x53, 0x32, 0xbe,
  0x5c, 0x8f, 0x04, 0x3d, 0x6f, 0x9f, 0xa0, 0x3d, 0x42, 0x12, 0x47, 0x3d,
  0xa3, 0x23, 0x0a, 0xbf, 0x2a, 0x2b, 0xdf, 0x3e, 0x26, 0xd1, 0x68, 0x3e,
  0xac, 0x78, 0x95, 0xbb, 0xec, 0x9f, 0x10, 0x3e, 0x00, 0x00, 0x00, 0x00,
  0x6d, 0x82, 0x32, 0xbe, 0x4d, 0x19, 0x17, 0x3e, 0xa3, 0xb4, 0x5d, 0xbe,
  0xf8, 0x7d, 0x8e, 0xbd, 0x73, 0xbf, 0x8c, 0xbe, 0x00, 0x00, 0x00, 0x00,
  0x00, 0x00, 0x00, 0x00, 0x00, 0x00, 0x00, 0x00, 0x00, 0x00, 0x06, 0x00,
  0x08, 0x00, 0x04, 0x00, 0x06, 0x00, 0x00, 0x00, 0x04, 0x00, 0x00, 0x00,
  0x80, 0x00, 0x00, 0x00, 0x5c, 0x40, 0x29, 0xb8, 0x07, 0xab, 0x4e, 0xbd,
  0x18, 0xa5, 0x28, 0x3d, 0x18, 0x7c, 0x1e, 0xbe, 0xc0, 0x72, 0xa7, 0xbe,
  0x2f, 0x4f, 0x46, 0xbd, 0xfa, 0x57, 0x90, 0xbd, 0x95, 0x8b, 0x98, 0xbd,
  0x12, 0xf0, 0x00, 0xbf, 0x59, 0xdd, 0x95, 0xbd, 0x15, 0x7c, 0x72, 0xba,
  0x45, 0x9d, 0x7a, 0xbd, 0xe7, 0x4d, 0xa7, 0x3c, 0x41, 0x05, 0x8d, 0x3e,
  0x33, 0xbb, 0x49, 0x3c, 0x95, 0xc0, 0x93, 0xbe, 0xb5, 0x05, 0x41, 0x3d,
  0xc5, 0x75, 0x7e, 0xbe, 0x2e, 0x8c, 0x69, 0xbe, 0xad, 0x09, 0xa9, 0x3e,
  0x09, 0x79, 0x89, 0xbe, 0xb0, 0xbf, 0x6c, 0xbe, 0x00, 0x86, 0x85, 0xbe,
  0x25, 0x65, 0x86, 0x3e, 0x37, 0x4f, 0xf3, 0xbe, 0xa8, 0x44, 0xb7, 0x3e,
  0x56, 0x82, 0xa5, 0x3e, 0x8c, 0x47, 0xa9, 0x3d, 0x92, 0xbc, 0xd6, 0xbe,
  0xc4, 0xad, 0x3d, 0xbe, 0x5a, 0x36, 0x52, 0x3d, 0x77, 0x17, 0x5e, 0x3e,
  0x00, 0x00, 0x00, 0x00, 0x00, 0x00, 0x00, 0x00, 0x00, 0x00, 0x00, 0x00,
  0xd4, 0xf9, 0xff, 0xff, 0x00, 0x00, 0x00, 0x00, 0x00, 0x00, 0x00, 0x00,
  0x00, 0x00, 0x00, 0x00, 0xe4, 0xf9, 0xff, 0xff, 0x0f, 0x00, 0x00, 0x00,
  0x4d, 0x4c, 0x49, 0x52, 0x20, 0x43, 0x6f, 0x6e, 0x76, 0x65, 0x72, 0x74,
  0x65, 0x64, 0x2e, 0x00, 0x01, 0x00, 0x00, 0x00, 0x14, 0x00, 0x00, 0x00,
  0x00, 0x00, 0x0e, 0x00, 0x18, 0x00, 0x04, 0x00, 0x08, 0x00, 0x0c, 0x00,
  0x10, 0x00, 0x14, 0x00, 0x0e, 0x00, 0x00, 0x00, 0x38, 0x01, 0x00, 0x00,
  0x2c, 0x01, 0x00, 0x00, 0x20, 0x01, 0x00, 0x00, 0x14, 0x00, 0x00, 0x00,
  0x04, 0x00, 0x00, 0x00, 0x04, 0x00, 0x00, 0x00, 0x6d, 0x61, 0x69, 0x6e,
  0x00, 0x00, 0x00, 0x00, 0x04, 0x00, 0x00, 0x00, 0xc8, 0x00, 0x00, 0x00,
  0x80, 0x00, 0x00, 0x00, 0x38, 0x00, 0x00, 0x00, 0x04, 0x00, 0x00, 0x00,
  0x9a, 0xff, 0xff, 0xff, 0x00, 0x00, 0x00, 0x08, 0x18, 0x00, 0x00, 0x00,
  0x0c, 0x00, 0x00, 0x00, 0x04, 0x00, 0x00, 0x00, 0x60, 0xfa, 0xff, 0xff,
  0x01, 0x00, 0x00, 0x00, 0x0c, 0x00, 0x00, 0x00, 0x03, 0x00, 0x00, 0x00,
  0x0b, 0x00, 0x00, 0x00, 0x08, 0x00, 0x00, 0x00, 0x04, 0x00, 0x00, 0x00,
  0xca, 0xff, 0xff, 0xff, 0x00, 0x00, 0x00, 0x08, 0x1c, 0x00, 0x00, 0x00,
  0x10, 0x00, 0x00, 0x00, 0x04, 0x00, 0x00, 0x00, 0x76, 0xff, 0xff, 0xff,
  0x00, 0x00, 0x00, 0x01, 0x01, 0x00, 0x00, 0x00, 0x0b, 0x00, 0x00, 0x00,
  0x03, 0x00, 0x00, 0x00, 0x0a, 0x00, 0x00, 0x00, 0x07, 0x00, 0x00, 0x00,
  0x03, 0x00, 0x00, 0x00, 0x00, 0x00, 0x0e, 0x00, 0x14, 0x00, 0x00, 0x00,
  0x08, 0x00, 0x0c, 0x00, 0x07, 0x00, 0x10, 0x00, 0x0e, 0x00, 0x00, 0x00,
  0x00, 0x00, 0x00, 0x08, 0x1c, 0x00, 0x00, 0x00, 0x10, 0x00, 0x00, 0x00,
  0x04, 0x00, 0x00, 0x00, 0xba, 0xff, 0xff, 0xff, 0x00, 0x00, 0x00, 0x01,
  0x01, 0x00, 0x00, 0x00, 0x0a, 0x00, 0x00, 0x00, 0x03, 0x00, 0x00, 0x00,
  0x09, 0x00, 0x00, 0x00, 0x06, 0x00, 0x00, 0x00, 0x02, 0x00, 0x00, 0x00,
  0x00, 0x00, 0x0e, 0x00, 0x16, 0x00, 0x00, 0x00, 0x08, 0x00, 0x0c, 0x00,
  0x07, 0x00, 0x10, 0x00, 0x0e, 0x00, 0x00, 0x00, 0x00, 0x00, 0x00, 0x08,
  0x24, 0x00, 0x00, 0x00, 0x18, 0x00, 0x00, 0x00, 0x0c, 0x00, 0x00, 0x00,
  0x00, 0x00, 0x06, 0x00, 0x08, 0x00, 0x07, 0x00, 0x06, 0x00, 0x00, 0x00,
  0x00, 0x00, 0x00, 0x01, 0x01, 0x00, 0x00, 0x00, 0x09, 0x00, 0x00, 0x00,
  0x03, 0x00, 0x00, 0x00, 0x00, 0x00, 0x00, 0x00, 0x05, 0x00, 0x00, 0x00,
  0x01, 0x00, 0x00, 0x00, 0x01, 0x00, 0x00, 0x00, 0x0c, 0x00, 0x00, 0x00,
  0x01, 0x00, 0x00, 0x00, 0x00, 0x00, 0x00, 0x00, 0x0d, 0x00, 0x00, 0x00,
  0x88, 0x04, 0x00, 0x00, 0x14, 0x04, 0x00, 0x00, 0xa4, 0x03, 0x00, 0x00,
  0x44, 0x03, 0x00, 0x00, 0xe4, 0x02, 0x00, 0x00, 0x98, 0x02, 0x00, 0x00,
  0x4c, 0x02, 0x00, 0x00, 0x00, 0x02, 0x00, 0x00, 0xb4, 0x01, 0x00, 0x00,
  0x3c, 0x01, 0x00, 0x00, 0xc4, 0x00, 0x00, 0x00, 0x4c, 0x00, 0x00, 0x00,
  0x04, 0x00, 0x00, 0x00, 0xc0, 0xfb, 0xff, 0xff, 0x34, 0x00, 0x00, 0x00,
  0x0d, 0x00, 0x00, 0x00, 0x1c, 0x00, 0x00, 0x00, 0x14, 0x00, 0x00, 0x00,
  0x04, 0x00, 0x00, 0x00, 0x02, 0x00, 0x00, 0x00, 0xff, 0xff, 0xff, 0xff,
  0x04, 0x00, 0x00, 0x00, 0xac, 0xfb, 0xff, 0xff, 0x08, 0x00, 0x00, 0x00,
  0x49, 0x64, 0x65, 0x6e, 0x74, 0x69, 0x74, 0x79, 0x00, 0x00, 0x00, 0x00,
  0x02, 0x00, 0x00, 0x00, 0x01, 0x00, 0x00, 0x00, 0x04, 0x00, 0x00, 0x00,
  0x04, 0xfc, 0xff, 0xff, 0x64, 0x00, 0x00, 0x00, 0x0c, 0x00, 0x00, 0x00,
  0x1c, 0x00, 0x00, 0x00, 0x14, 0x00, 0x00, 0x00, 0x04, 0x00, 0x00, 0x00,
  0x02, 0x00, 0x00, 0x00, 0xff, 0xff, 0xff, 0xff, 0x08, 0x00, 0x00, 0x00,
  0xf0, 0xfb, 0xff, 0xff, 0x3a, 0x00, 0x00, 0x00, 0x73, 0x65, 0x71, 0x75,
  0x65, 0x6e, 0x74, 0x69, 0x61, 0x6c, 0x5f, 0x31, 0x37, 0x2f, 0x64, 0x65,
  0x6e, 0x73, 0x65, 0x5f, 0x36, 0x37, 0x2f, 0x52, 0x65, 0x6c, 0x75, 0x3b,
  0x73, 0x65, 0x71, 0x75, 0x65, 0x6e, 0x74, 0x69, 0x61, 0x6c, 0x5f, 0x31,
  0x37, 0x2f, 0x64, 0x65, 0x6e, 0x73, 0x65, 0x5f, 0x36, 0x37, 0x2f, 0x42,
  0x69, 0x61, 0x73, 0x41, 0x64, 0x64, 0x00, 0x00, 0x02, 0x00, 0x00, 0x00,
  0x01, 0x00, 0x00, 0x00, 0x08, 0x00, 0x00, 0x00, 0x78, 0xfc, 0xff, 0xff,
  0x64, 0x00, 0x00, 0x00, 0x0b, 0x00, 0x00, 0x00, 0x1c, 0x00, 0x00, 0x00,
  0x14, 0x00, 0x00, 0x00, 0x04, 0x00, 0x00, 0x00, 0x02, 0x00, 0x00, 0x00,
  0xff, 0xff, 0xff, 0xff, 0x10, 0x00, 0x00, 0x00, 0x64, 0xfc, 0xff, 0xff,
  0x3a, 0x00, 0x00, 0x00, 0x73, 0x65, 0x71, 0x75, 0x65, 0x6e, 0x74, 0x69,
  0x61, 0x6c, 0x5f, 0x31, 0x37, 0x2f, 0x64, 0x65, 0x6e, 0x73, 0x65, 0x5f,
  0x36, 0x36, 0x2f, 0x52, 0x65, 0x6c, 0x75, 0x3b, 0x73, 0x65, 0x71, 0x75,
  0x65, 0x6e, 0x74, 0x69, 0x61, 0x6c, 0x5f, 0x31, 0x37, 0x2f, 0x64, 0x65,
  0x6e, 0x73, 0x65, 0x5f, 0x36, 0x36, 0x2f, 0x42, 0x69, 0x61, 0x73, 0x41,
  0x64, 0x64, 0x00, 0x00, 0x02, 0x00, 0x00, 0x00, 0x01, 0x00, 0x00, 0x00,
  0x10, 0x00, 0x00, 0x00, 0xec, 0xfc, 0xff, 0xff, 0x64, 0x00, 0x00, 0x00,
  0x0a, 0x00, 0x00, 0x00, 0x1c, 0x00, 0x00, 0x00, 0x14, 0x00, 0x00, 0x00,
  0x04, 0x00, 0x00, 0x00, 0x02, 0x00, 0x00, 0x00, 0xff, 0xff, 0xff, 0xff,
  0x20, 0x00, 0x00, 0x00, 0xd8, 0xfc, 0xff, 0xff, 0x3a, 0x00, 0x00, 0x00,
  0x73, 0x65, 0x71, 0x75, 0x65, 0x6e, 0x74, 0x69, 0x61, 0x6c, 0x5f, 0x31,
  0x37, 0x2f, 0x64, 0x65, 0x6e, 0x73, 0x65, 0x5f, 0x36, 0x35, 0x2f, 0x52,
  0x65, 0x6c, 0x75, 0x3b, 0x73, 0x65, 0x71, 0x75, 0x65, 0x6e, 0x74, 0x69,
  0x61, 0x6c, 0x5f, 0x31, 0x37, 0x2f, 0x64, 0x65, 0x6e, 0x73, 0x65, 0x5f,
  0x36, 0x35, 0x2f, 0x42, 0x69, 0x61, 0x73, 0x41, 0x64, 0x64, 0x00, 0x00,
  0x02, 0x00, 0x00, 0x00, 0x01, 0x00, 0x00, 0x00, 0x20, 0x00, 0x00, 0x00,
  0xca, 0xfd, 0xff, 0xff, 0x38, 0x00, 0x00, 0x00, 0x09, 0x00, 0x00, 0x00,
  0x0c, 0x00, 0x00, 0x00, 0x04, 0x00, 0x00, 0x00, 0x3c, 0xfd, 0xff, 0xff,
  0x1d, 0x00, 0x00, 0x00, 0x73, 0x65, 0x71, 0x75, 0x65, 0x6e, 0x74, 0x69,
  0x61, 0x6c, 0x5f, 0x31, 0x37, 0x2f, 0x64, 0x65, 0x6e, 0x73, 0x65, 0x5f,
  0x36, 0x38, 0x2f, 0x4d, 0x61, 0x74, 0x4d, 0x75, 0x6c, 0x00, 0x00, 0x00,
  0x02, 0x00, 0x00, 0x00, 0x04, 0x00, 0x00, 0x00, 0x08, 0x00, 0x00, 0x00,
  0x12, 0xfe, 0xff, 0xff, 0x38, 0x00, 0x00, 0x00, 0x08, 0x00, 0x00, 0x00,
  0x0c, 0x00, 0x00, 0x00, 0x04, 0x00, 0x00, 0x00, 0x84, 0xfd, 0xff, 0xff,
  0x1d, 0x00, 0x00, 0x00, 0x73, 0x65, 0x71, 0x75, 0x65, 0x6e, 0x74, 0x69,
  0x61, 0x6c, 0x5f, 0x31, 0x37, 0x2f, 0x64, 0x65, 0x6e, 0x73, 0x65, 0x5f,
  0x36, 0x37, 0x2f, 0x4d, 0x61, 0x74, 0x4d, 0x75, 0x6c, 0x00, 0x00, 0x00,
  0x02, 0x00, 0x00, 0x00, 0x08, 0x00, 0x00, 0x00, 0x10, 0x00, 0x00, 0x00,
  0x5a, 0xfe, 0xff, 0xff, 0x38, 0x00, 0x00, 0x00, 0x07, 0x00, 0x00, 0x00,
  0x0c, 0x00, 0x00, 0x00, 0x04, 0x00, 0x00, 0x00, 0xcc, 0xfd, 0xff, 0xff,
  0x1d, 0x00, 0x00, 0x00, 0x73, 0x65, 0x71, 0x75, 0x65, 0x6e, 0x74, 0x69,
  0x61, 0x6c, 0x5f, 0x31, 0x37, 0x2f, 0x64, 0x65, 0x6e, 0x73, 0x65, 0x5f,
  0x36, 0x36, 0x2f, 0x4d, 0x61, 0x74, 0x4d, 0x75, 0x6c, 0x00, 0x00, 0x00,
  0x02, 0x00, 0x00, 0x00, 0x10, 0x00, 0x00, 0x00, 0x20, 0x00, 0x00, 0x00,
  0xa2, 0xfe, 0xff, 0xff, 0x38, 0x00, 0x00, 0x00, 0x06, 0x00, 0x00, 0x00,
  0x0c, 0x00, 0x00, 0x00, 0x04, 0x00, 0x00, 0x00, 0x14, 0xfe, 0xff, 0xff,
  0x1d, 0x00, 0x00, 0x00, 0x73, 0x65, 0x71, 0x75, 0x65, 0x6e, 0x74, 0x69,
  0x61, 0x6c, 0x5f, 0x31, 0x37, 0x2f, 0x64, 0x65, 0x6e, 0x73, 0x65, 0x5f,
  0x36, 0x35, 0x2f, 0x4d, 0x61, 0x74, 0x4d, 0x75, 0x6c, 0x00, 0x00, 0x00,
  0x02, 0x00, 0x00, 0x00, 0x20, 0x00, 0x00, 0x00, 0x02, 0x00, 0x00, 0x00,
  0xea, 0xfe, 0xff, 0xff, 0x50, 0x00, 0x00, 0x00, 0x05, 0x00, 0x00, 0x00,
  0x0c, 0x00, 0x00, 0x00, 0x04, 0x00, 0x00, 0x00, 0x5c, 0xfe, 0xff, 0xff,
  0x36, 0x00, 0x00, 0x00, 0x73, 0x65, 0x71, 0x75, 0x65, 0x6e, 0x74, 0x69,
  0x61, 0x6c, 0x5f, 0x31, 0x37, 0x2f, 0x64, 0x65, 0x6e, 0x73, 0x65, 0x5f,
  0x36, 0x38, 0x2f, 0x42, 0x69, 0x61, 0x73, 0x41, 0x64, 0x64, 0x2f, 0x52,
  0x65, 0x61, 0x64, 0x56, 0x61, 0x72, 0x69, 0x61, 0x62, 0x6c, 0x65, 0x4f,
  0x70, 0x2f, 0x72, 0x65, 0x73, 0x6f, 0x75, 0x72, 0x63, 0x65, 0x00, 0x00,
  0x01, 0x00, 0x00, 0x00, 0x04, 0x00, 0x00, 0x00, 0x46, 0xff, 0xff, 0xff,
  0x50, 0x00, 0x00, 0x00, 0x04, 0x00, 0x00, 0x00, 0x0c, 0x00, 0x00, 0x00,
  0x04, 0x00, 0x00, 0x00, 0xb8, 0xfe, 0xff, 0xff, 0x36, 0x00, 0x00, 0x00,
  0x73, 0x65, 0x71, 0x75, 0x65, 0x6e, 0x74, 0x69, 0x61, 0x6c, 0x5f, 0x31,
  0x37, 0x2f, 0x64, 0x65, 0x6e, 0x73, 0x65, 0x5f, 0x36, 0x37, 0x2f, 0x42,
  0x69, 0x61, 0x73, 0x41, 0x64, 0x64, 0x2f, 0x52, 0x65, 0x61, 0x64, 0x56,
  0x61, 0x72, 0x69, 0x61, 0x62, 0x6c, 0x65, 0x4f, 0x70, 0x2f, 0x72, 0x65,
  0x73, 0x6f, 0x75, 0x72, 0x63, 0x65, 0x00, 0x00, 0x01, 0x00, 0x00, 0x00,
  0x08, 0x00, 0x00, 0x00, 0xa2, 0xff, 0xff, 0xff, 0x50, 0x00, 0x00, 0x00,
  0x03, 0x00, 0x00, 0x00, 0x0c, 0x00, 0x00, 0x00, 0x04, 0x00, 0x00, 0x00,
  0x14, 0xff, 0xff, 0xff, 0x36, 0x00, 0x00, 0x00, 0x73, 0x65, 0x71, 0x75,
  0x65, 0x6e, 0x74, 0x69, 0x61, 0x6c, 0x5f, 0x31, 0x37, 0x2f, 0x64, 0x65,
  0x6e, 0x73, 0x65, 0x5f, 0x36, 0x36, 0x2f, 0x42, 0x69, 0x61, 0x73, 0x41,
  0x64, 0x64, 0x2f, 0x52, 0x65, 0x61, 0x64, 0x56, 0x61, 0x72, 0x69, 0x61,
  0x62, 0x6c, 0x65, 0x4f, 0x70, 0x2f, 0x72, 0x65, 0x73, 0x6f, 0x75, 0x72,
  0x63, 0x65, 0x00, 0x00, 0x01, 0x00, 0x00, 0x00, 0x10, 0x00, 0x00, 0x00,
  0x00, 0x00, 0x0e, 0x00, 0x14, 0x00, 0x04, 0x00, 0x00, 0x00, 0x08, 0x00,
  0x0c, 0x00, 0x10, 0x00, 0x0e, 0x00, 0x00, 0x00, 0x50, 0x00, 0x00, 0x00,
  0x02, 0x00, 0x00, 0x00, 0x0c, 0x00, 0x00, 0x00, 0x04, 0x00, 0x00, 0x00,
  0x80, 0xff, 0xff, 0xff, 0x36, 0x00, 0x00, 0x00, 0x73, 0x65, 0x71, 0x75,
  0x65, 0x6e, 0x74, 0x69, 0x61, 0x6c, 0x5f, 0x31, 0x37, 0x2f, 0x64, 0x65,
  0x6e, 0x73, 0x65, 0x5f, 0x36, 0x35, 0x2f, 0x42, 0x69, 0x61, 0x73, 0x41,
  0x64, 0x64, 0x2f, 0x52, 0x65, 0x61, 0x64, 0x56, 0x61, 0x72, 0x69, 0x61,
  0x62, 0x6c, 0x65, 0x4f, 0x70, 0x2f, 0x72, 0x65, 0x73, 0x6f, 0x75, 0x72,
  0x63, 0x65, 0x00, 0x00, 0x01, 0x00, 0x00, 0x00, 0x20, 0x00, 0x00, 0x00,
  0x14, 0x00, 0x18, 0x00, 0x04, 0x00, 0x00, 0x00, 0x08, 0x00, 0x0c, 0x00,
  0x10, 0x00, 0x00, 0x00, 0x00, 0x00, 0x14, 0x00, 0x14, 0x00, 0x00, 0x00,
  0x3c, 0x00, 0x00, 0x00, 0x01, 0x00, 0x00, 0x00, 0x20, 0x00, 0x00, 0x00,
  0x18, 0x00, 0x00, 0x00, 0x04, 0x00, 0x00, 0x00, 0x02, 0x00, 0x00, 0x00,
  0xff, 0xff, 0xff, 0xff, 0x02, 0x00, 0x00, 0x00, 0x04, 0x00, 0x04, 0x00,
  0x04, 0x00, 0x00, 0x00, 0x0e, 0x00, 0x00, 0x00, 0x64, 0x65, 0x6e, 0x73,
  0x65, 0x5f, 0x36, 0x35, 0x5f, 0x69, 0x6e, 0x70, 0x75, 0x74, 0x00, 0x00,
  0x02, 0x00, 0x00, 0x00, 0x01, 0x00, 0x00, 0x00, 0x02, 0x00, 0x00, 0x00,
  0x01, 0x00, 0x00, 0x00, 0x10, 0x00, 0x00, 0x00, 0x00, 0x00, 0x0a, 0x00,
  0x0c, 0x00, 0x07, 0x00, 0x00, 0x00, 0x08, 0x00, 0x0a, 0x00, 0x00, 0x00,
  0x00, 0x00, 0x00, 0x09, 0x03, 0x00, 0x00, 0x00
};

#endif //VENTI_MODEL_H