#ifndef VENTI_MODEL_H
#define VENTI_MODEL_H


unsigned int venti_model_len = 5424;
unsigned char venti_model[] = {
 0x24, 0x00, 0x00, 0x00, 0x54, 0x46, 0x4c, 0x33, 0x00, 0x00, 0x00, 0x00,
  0x00, 0x00, 0x00, 0x00, 0x00, 0x00, 0x12, 0x00, 0x1c, 0x00, 0x04, 0x00,
  0x08, 0x00, 0x0c, 0x00, 0x10, 0x00, 0x14, 0x00, 0x00, 0x00, 0x18, 0x00,
  0x12, 0x00, 0x00, 0x00, 0x03, 0x00, 0x00, 0x00, 0xe4, 0x14, 0x00, 0x00,
  0xbc, 0x0e, 0x00, 0x00, 0xa4, 0x0e, 0x00, 0x00, 0x3c, 0x00, 0x00, 0x00,
  0x04, 0x00, 0x00, 0x00, 0x01, 0x00, 0x00, 0x00, 0x0c, 0x00, 0x00, 0x00,
  0x08, 0x00, 0x0c, 0x00, 0x04, 0x00, 0x08, 0x00, 0x08, 0x00, 0x00, 0x00,
  0x08, 0x00, 0x00, 0x00, 0x0e, 0x00, 0x00, 0x00, 0x13, 0x00, 0x00, 0x00,
  0x6d, 0x69, 0x6e, 0x5f, 0x72, 0x75, 0x6e, 0x74, 0x69, 0x6d, 0x65, 0x5f,
  0x76, 0x65, 0x72, 0x73, 0x69, 0x6f, 0x6e, 0x00, 0x0f, 0x00, 0x00, 0x00,
  0x54, 0x0e, 0x00, 0x00, 0x40, 0x0e, 0x00, 0x00, 0x24, 0x0d, 0x00, 0x00,
  0xb0, 0x0c, 0x00, 0x00, 0x6c, 0x0c, 0x00, 0x00, 0x48, 0x0c, 0x00, 0x00,
  0x34, 0x0a, 0x00, 0x00, 0x20, 0x05, 0x00, 0x00, 0x4c, 0x01, 0x00, 0x00,
  0x78, 0x00, 0x00, 0x00, 0x6c, 0x00, 0x00, 0x00, 0x58, 0x00, 0x00, 0x00,
  0x44, 0x00, 0x00, 0x00, 0x30, 0x00, 0x00, 0x00, 0x04, 0x00, 0x00, 0x00,
  0x16, 0xf3, 0xff, 0xff, 0x04, 0x00, 0x00, 0x00, 0x10, 0x00, 0x00, 0x00,
  0x31, 0x2e, 0x35, 0x2e, 0x30, 0x00, 0x00, 0x00, 0x00, 0x00, 0x00, 0x00,
  0x00, 0x00, 0x00, 0x00, 0x00, 0x00, 0x00, 0x00, 0x00, 0x00, 0x00, 0x00,
  0x00, 0x00, 0x00, 0x00, 0xf0, 0xeb, 0xff, 0xff, 0x00, 0x00, 0x00, 0x00,
  0x00, 0x00, 0x00, 0x00, 0x00, 0x00, 0x00, 0x00, 0x00, 0xec, 0xff, 0xff,
  0x00, 0x00, 0x00, 0x00, 0x00, 0x00, 0x00, 0x00, 0x00, 0x00, 0x00, 0x00,
  0x10, 0xec, 0xff, 0xff, 0x00, 0x00, 0x00, 0x00, 0x00, 0x00, 0x00, 0x00,
  0x00, 0x00, 0x00, 0x00, 0x20, 0xec, 0xff, 0xff, 0x00, 0x00, 0x00, 0x00,
  0x76, 0xf3, 0xff, 0xff, 0x04, 0x00, 0x00, 0x00, 0xc0, 0x00, 0x00, 0x00,
  0xd4, 0x1f, 0xd7, 0x3f, 0xb2, 0xe3, 0xfa, 0x39, 0x64, 0x58, 0x0c, 0x40,
  0x52, 0x00, 0x80, 0x3e, 0x60, 0x03, 0xf9, 0x3a, 0xf5, 0x58, 0x0d, 0x3a,
  0xdf, 0xc5, 0x5d, 0x3b, 0xca, 0x47, 0x0d, 0x3a, 0xf7, 0x5a, 0xea, 0x3a,
  0x45, 0x33, 0xe6, 0xbe, 0xda, 0x67, 0x88, 0xbb, 0x4f, 0x4c, 0x90, 0x3f,
  0x2a, 0x0b, 0xdb, 0xbf, 0x0c, 0xea, 0x2d, 0x3c, 0x3a, 0x64, 0x6e, 0xbe,
  0x55, 0x46, 0xfe, 0xbe, 0x91, 0x95, 0xf3, 0x3c, 0x1b, 0xb9, 0xea, 0x3d,
  0x44, 0x96, 0xd4, 0xbe, 0x03, 0x08, 0x69, 0xbd, 0xd8, 0x11, 0xb7, 0xbf,
  0x9b, 0x2a, 0xe8, 0xbe, 0x5e, 0x1c, 0x1f, 0x3f, 0x9c, 0x18, 0xd7, 0x3f,
  0x92, 0x68, 0xb1, 0x3e, 0x37, 0xb0, 0x5a, 0x3f, 0x18, 0xc2, 0x3f, 0xbd,
  0x7a, 0xfc, 0xc7, 0x3e, 0xc4, 0xb1, 0xdd, 0x3c, 0xc3, 0x82, 0xaf, 0x3c,
  0x80, 0x3c, 0x8f, 0x3e, 0x13, 0x25, 0xae, 0xbe, 0x63, 0xba, 0xc1, 0x3c,
  0x92, 0xdd, 0x90, 0xbe, 0x59, 0x89, 0xe7, 0xbc, 0xf1, 0x5f, 0x9e, 0xbe,
  0x70, 0xad, 0xc2, 0xbb, 0x76, 0xd8, 0xd6, 0x3b, 0x7f, 0x87, 0xff, 0x3f,
  0x08, 0xe0, 0x05, 0x3e, 0xc6, 0xf9, 0xc3, 0xbf, 0x1a, 0xbc, 0x3f, 0xbf,
  0xd1, 0xe2, 0x19, 0xbe, 0xb3, 0xe5, 0xb8, 0xbc, 0x37, 0x8a, 0x33, 0x3d,
  0xfa, 0x43, 0x71, 0xbd, 0x15, 0x15, 0x6a, 0x3e, 0x2d, 0x0e, 0x8f, 0x3c,
  0x00, 0x00, 0x00, 0x00, 0x46, 0xf4, 0xff, 0xff, 0x04, 0x00, 0x00, 0x00,
  0xc0, 0x03, 0x00, 0x00, 0x4c, 0xf7, 0x74, 0xbe, 0x88, 0x5f, 0xad, 0x3d,
  0x47, 0xab, 0x89, 0x3f, 0x31, 0x40, 0xdc, 0xbe, 0x47, 0x92, 0x9f, 0xbf,
  0x61, 0x43, 0xa7, 0x3e, 0x19, 0x33, 0xb0, 0xbd, 0xe4, 0xd4, 0xce, 0x3e,
  0x9b, 0x79, 0xac, 0x3d, 0xf8, 0x88, 0x82, 0x3e, 0xde, 0x50, 0x53, 0xbe,
  0x1a, 0xec, 0xa7, 0xbe, 0x62, 0x83, 0x21, 0x3e, 0x43, 0x12, 0xfb, 0xbf,
  0x16, 0xff, 0xd9, 0xbe, 0x03, 0x6d, 0x92, 0x3e, 0xc2, 0x25, 0xe9, 0xbf,
  0x39, 0xea, 0x15, 0xbf, 0x7c, 0xb8, 0x87, 0xbe, 0xd8, 0xbf, 0xf9, 0xbe,
  0xec, 0x64, 0x9f, 0x3c, 0x77, 0x50, 0x24, 0x3e, 0x3c, 0x55, 0xa4, 0x3d,
  0xe3, 0x2b, 0x06, 0x3d, 0x32, 0xaf, 0x82, 0xc0, 0xa0, 0x6a, 0x19, 0xbe,
  0xb5, 0xeb, 0xdd, 0x3d, 0x69, 0x34, 0x2f, 0x3e, 0xdc, 0x79, 0xeb, 0x3d,
  0xe6, 0xbb, 0x3f, 0x3d, 0xed, 0xca, 0xd1, 0xbb, 0x89, 0x6b, 0x85, 0x3d,
  0x40, 0x39, 0x58, 0xbe, 0xf5, 0xe3, 0x86, 0xc0, 0xde, 0x54, 0xe9, 0xbd,
  0xf3, 0x12, 0x92, 0x3d, 0x6d, 0x3f, 0xcb, 0xbb, 0x31, 0x51, 0x69, 0x3b,
  0x1c, 0x40, 0x0e, 0x3d, 0x90, 0xf3, 0x02, 0x3e, 0xa3, 0x27, 0x34, 0xbf,
  0x19, 0x50, 0x6c, 0x3d, 0xa1, 0x88, 0x39, 0xbf, 0x9b, 0xce, 0xda, 0x3e,
  0xd7, 0xf0, 0x29, 0xbf, 0xbe, 0x97, 0x1f, 0xbf, 0x6a, 0xad, 0x20, 0x3d,
  0x44, 0x12, 0xa5, 0x3c, 0xaa, 0x74, 0x32, 0x3e, 0xda, 0xe3, 0xcc, 0xbf,
  0xd1, 0xe2, 0xe0, 0xbf, 0xeb, 0xda, 0xe7, 0xbf, 0x76, 0xd8, 0x9b, 0xbf,
  0xd5, 0x9c, 0xb0, 0x3e, 0xd2, 0x7d, 0x90, 0xbe, 0x6a, 0x40, 0x94, 0x3d,
  0xae, 0xc8, 0xcb, 0x3d, 0x0f, 0x11, 0xd4, 0xbf, 0x29, 0x88, 0x01, 0xc0,
  0x1d, 0x1e, 0xcb, 0x3e, 0xe6, 0x8d, 0x50, 0xbe, 0x75, 0x2a, 0xb9, 0x3e,
  0xfc, 0xdc, 0xd4, 0xbe, 0x84, 0x78, 0x74, 0xbe, 0x70, 0xdc, 0x98, 0xbe,
  0x98, 0x67, 0x22, 0xbd, 0x62, 0x1b, 0x5b, 0xbe, 0x53, 0x89, 0xbe, 0xbe,
  0xa4, 0x9d, 0x8f, 0x3d, 0xf7, 0xf1, 0xce, 0xbe, 0xb8, 0xb0, 0x90, 0xbe,
  0x0a, 0xe6, 0x53, 0x3e, 0xf1, 0x0e, 0xd2, 0xbe, 0x69, 0x3a, 0xa2, 0x3e,
  0x60, 0xa2, 0x0c, 0x3c, 0xb1, 0xa6, 0xd6, 0xbe, 0x51, 0xda, 0x89, 0x3e,
  0x40, 0xa0, 0x4b, 0x3c, 0xfe, 0xf2, 0x0a, 0xbe, 0x76, 0x92, 0xce, 0xbe,
  0x32, 0x3f, 0x2d, 0xbe, 0xc4, 0x9f, 0xdb, 0xbe, 0x52, 0xc4, 0x31, 0xc0,
  0xe1, 0x34, 0x0d, 0x3f, 0xf3, 0xfb, 0xa4, 0xbe, 0x3c, 0x9f, 0x48, 0x3c,
  0xca, 0x75, 0x3a, 0xba, 0x9c, 0xd9, 0x86, 0x3d, 0x30, 0x3f, 0xd7, 0x3d,
  0x06, 0xad, 0x6e, 0x3d, 0x3b, 0xd3, 0xf0, 0xbd, 0x00, 0x90, 0x13, 0xbe,
  0x46, 0x2d, 0x10, 0x3e, 0xa4, 0xc8, 0xc7, 0xbc, 0x59, 0xe0, 0x61, 0x3d,
  0x51, 0xff, 0x45, 0x3e, 0x70, 0x1c, 0x99, 0x3e, 0x57, 0x87, 0xb9, 0x3e,
  0x05, 0x1e, 0x2a, 0xc0, 0xb2, 0x89, 0x77, 0x3e, 0x4b, 0x7b, 0xc3, 0x3c,
  0x81, 0x6d, 0x5b, 0x3f, 0x8d, 0x5a, 0x3f, 0xbe, 0xc3, 0xe1, 0x2a, 0xbe,
  0xe1, 0xe3, 0x4a, 0x3f, 0x78, 0xc1, 0x57, 0xbe, 0xbc, 0x42, 0xe6, 0x3d,
  0xf3, 0xbc, 0x4d, 0xbe, 0xbb, 0xf5, 0x1d, 0x3e, 0x64, 0xa7, 0x72, 0xbf,
  0xc8, 0x78, 0xd4, 0xbb, 0x07, 0x28, 0x4e, 0x3d, 0x05, 0xc8, 0x89, 0x3f,
  0xfa, 0x1d, 0x35, 0xbe, 0xc8, 0x4d, 0x78, 0xbf, 0x8a, 0x93, 0x4b, 0xbd,
  0x7a, 0x27, 0xb4, 0xbe, 0xa0, 0x8f, 0x10, 0xbf, 0x54, 0xee, 0x8b, 0xbf,
  0xe2, 0xb8, 0x83, 0x3e, 0x93, 0xf0, 0xc1, 0x3c, 0x07, 0x30, 0x31, 0xbe,
  0xdc, 0x75, 0xbc, 0xbd, 0x39, 0x25, 0x92, 0xbf, 0xf6, 0xd0, 0x03, 0x3f,
  0xd4, 0x68, 0xde, 0x3e, 0xf9, 0x65, 0x74, 0x3e, 0x4e, 0x7a, 0xed, 0xbc,
  0x79, 0x35, 0xa9, 0x3e, 0x5e, 0x3c, 0xbc, 0x3e, 0x2d, 0x81, 0x57, 0x3e,
  0x82, 0x23, 0x58, 0x3d, 0x92, 0xb8, 0x15, 0x3e, 0xb6, 0x14, 0x58, 0x3e,
  0x5f, 0xfd, 0x00, 0xbd, 0xcb, 0x64, 0xcd, 0x3e, 0x8d, 0x2f, 0xe8, 0x3d,
  0x06, 0xac, 0xf1, 0xbe, 0x8e, 0xc8, 0xa5, 0xbd, 0x1e, 0x3f, 0x4f, 0x3e,
  0x7d, 0x10, 0xc2, 0xbe, 0x4f, 0x92, 0x1e, 0x3e, 0xe3, 0xd4, 0x57, 0x3d,
  0x95, 0x88, 0x0a, 0xc0, 0x58, 0xe8, 0xa1, 0x3f, 0x04, 0x65, 0x10, 0xbd,
  0x3b, 0x8e, 0x09, 0x3f, 0x17, 0x25, 0xef, 0x3e, 0xb7, 0x97, 0xfa, 0x3e,
  0x98, 0x0c, 0xcf, 0x3d, 0x7d, 0x97, 0x89, 0x3e, 0x6c, 0x11, 0x58, 0x3e,
  0xeb, 0xba, 0x56, 0xbe, 0xe6, 0x0d, 0xbc, 0x3f, 0x57, 0x74, 0x52, 0xbd,
  0x81, 0x80, 0xff, 0x3e, 0x06, 0x45, 0xfc, 0xbb, 0x0e, 0x31, 0xc3, 0xbd,
  0x51, 0xe1, 0xf3, 0xbd, 0x24, 0xd0, 0x41, 0xbe, 0xa6, 0xe8, 0xe5, 0x3b,
  0xc0, 0xe3, 0x1e, 0x3b, 0x6c, 0xba, 0x06, 0x3d, 0xdf, 0xf8, 0xa6, 0xbd,
  0x04, 0xc4, 0x2c, 0xc0, 0xcd, 0x61, 0xa1, 0xbf, 0xaa, 0x1f, 0xc7, 0x3d,
  0xbf, 0xeb, 0x0c, 0x3d, 0xbd, 0x27, 0x4a, 0xbe, 0x25, 0xe8, 0xf9, 0xbf,
  0x0d, 0x40, 0x8c, 0x3d, 0x9d, 0xa0, 0x8f, 0xc0, 0xd9, 0x35, 0xc6, 0xbf,
  0x4b, 0x83, 0x22, 0xbf, 0xe4, 0xa3, 0x9b, 0xba, 0x58, 0x99, 0x58, 0x3e,
  0xd5, 0xb1, 0x2f, 0x3d, 0xd8, 0x13, 0xf5, 0xbf, 0xba, 0x6d, 0x75, 0x3b,
  0x62, 0x53, 0xc5, 0x3d, 0x80, 0x92, 0x3c, 0x3e, 0x35, 0xf5, 0x05, 0xbf,
  0x37, 0x6a, 0x6f, 0xbe, 0x9a, 0x6f, 0x93, 0x3e, 0x4d, 0x2b, 0x52, 0xbe,
  0xb0, 0x45, 0x7c, 0x3c, 0xcf, 0xc8, 0x30, 0x3d, 0x54, 0x09, 0x90, 0x3e,
  0x13, 0x47, 0x53, 0xbe, 0xa4, 0xff, 0x6f, 0x3e, 0xc3, 0x01, 0xd7, 0xbe,
  0x2a, 0xe8, 0x17, 0xbe, 0x74, 0xc8, 0x39, 0x3e, 0x6c, 0x61, 0x78, 0xbe,
  0x8c, 0x79, 0x07, 0x3d, 0xf8, 0x91, 0xfd, 0xbe, 0x0f, 0x89, 0x05, 0xbe,
  0x14, 0x5d, 0xc5, 0xbd, 0x8a, 0x34, 0xc9, 0xbe, 0x9e, 0xba, 0x47, 0x3e,
  0x48, 0xef, 0x7d, 0xbc, 0x94, 0x21, 0x74, 0xbd, 0x40, 0x7f, 0x5f, 0xbc,
  0x94, 0x82, 0x4d, 0xbe, 0xd6, 0xe9, 0xeb, 0x3e, 0xdf, 0x17, 0xa2, 0x3e,
  0x07, 0xb3, 0x3d, 0x3e, 0x0b, 0xfa, 0x97, 0x3d, 0x1f, 0x89, 0x84, 0x3e,
  0x3b, 0x51, 0x8a, 0x3e, 0x3f, 0x94, 0x12, 0x3e, 0x5d, 0xa8, 0x8d, 0x3d,
  0xfb, 0x6a, 0x32, 0xbe, 0xab, 0x73, 0xa0, 0x3e, 0x66, 0xbd, 0x5a, 0xbc,
  0xf5, 0x8f, 0xd1, 0x3e, 0x75, 0x2f, 0xae, 0x3d, 0xff, 0xc5, 0xa2, 0xbe,
  0x50, 0x37, 0x1a, 0xbc, 0x6c, 0xf5, 0x2b, 0x3e, 0xf2, 0x1e, 0xcb, 0xbe,
  0x97, 0x7b, 0xdb, 0x3c, 0x5a, 0x67, 0x86, 0x3f, 0x1c, 0x29, 0xbb, 0xbe,
  0x25, 0xb1, 0x5c, 0xbf, 0xee, 0xa5, 0x3a, 0xbf, 0xae, 0x65, 0x0d, 0xbf,
  0x29, 0x08, 0x03, 0x3f, 0xeb, 0x20, 0x52, 0x3d, 0x9f, 0x1c, 0x15, 0xbf,
  0x00, 0xb3, 0xe3, 0xbe, 0x6f, 0xcc, 0x51, 0xbe, 0x79, 0x6f, 0xba, 0x3e,
  0xdd, 0x96, 0xab, 0xbf, 0x31, 0x38, 0xe3, 0xbe, 0x36, 0xc9, 0x13, 0x3e,
  0x79, 0x4c, 0xb5, 0xbf, 0xf2, 0x0a, 0x23, 0xbe, 0x7b, 0x46, 0xba, 0x3d,
  0x16, 0xd6, 0x84, 0xbe, 0x00, 0x00, 0x00, 0x00, 0x16, 0xf8, 0xff, 0xff,
  0x04, 0x00, 0x00, 0x00, 0x00, 0x05, 0x00, 0x00, 0x01, 0x25, 0x04, 0xf9,
  0x00, 0xf7, 0x05, 0xf9, 0xf3, 0xfb, 0xeb, 0xf4, 0x02, 0x07, 0x00, 0x08,
  0xdc, 0xf6, 0xfd, 0xfe, 0x00, 0xfa, 0xfb, 0x02, 0xfd, 0x03, 0x03, 0xf5,
  0x04, 0x04, 0xf3, 0xf4, 0x07, 0x04, 0x02, 0x05, 0xfd, 0xff, 0x02, 0xeb,
  0x02, 0x03, 0xfc, 0x00, 0x00, 0xfb, 0xfd, 0x05, 0x05, 0xf6, 0x04, 0x02,
  0x04, 0x00, 0x05, 0x03, 0xf8, 0xfd, 0xfe, 0xfe, 0x06, 0x0e, 0x00, 0xff,
  0xff, 0xfd, 0xeb, 0xf6, 0xf8, 0xfd, 0x05, 0xe0, 0x06, 0xff, 0x02, 0x03,
  0x01, 0xfa, 0xff, 0x04, 0xfa, 0x01, 0xfb, 0x03, 0x03, 0xfc, 0xf4, 0xf6,
  0xfb, 0xf6, 0xff, 0xf2, 0xfc, 0xfa, 0x05, 0x01, 0xff, 0xfc, 0xfc, 0x06,
  0x08, 0x05, 0xff, 0xfb, 0xef, 0xf4, 0xfb, 0x01, 0xff, 0x02, 0x04, 0x00,
  0xff, 0xf8, 0xfd, 0xfc, 0x01, 0x05, 0xfa, 0x03, 0xfc, 0xf9, 0x02, 0x01,
  0x00, 0x05, 0xff, 0xfe, 0x04, 0xfd, 0xd2, 0xff, 0x01, 0x06, 0x01, 0x04,
  0xf6, 0xfa, 0xf8, 0xff, 0x07, 0x04, 0x07, 0x0b, 0xff, 0x00, 0xfe, 0xe2,
  0x01, 0x03, 0xe7, 0x01, 0x06, 0xfa, 0x10, 0x0b, 0x03, 0xcb, 0x05, 0x03,
  0x04, 0xfb, 0x06, 0x05, 0x03, 0xfd, 0x01, 0x02, 0x02, 0xd6, 0xfe, 0xe4,
  0x07, 0xe6, 0xfd, 0xff, 0x0c, 0xfc, 0x00, 0x0a, 0x03, 0x13, 0x10, 0x02,
  0x00, 0x01, 0xfc, 0xf3, 0x02, 0x0a, 0xf5, 0x03, 0x08, 0x06, 0x08, 0xc9,
  0x06, 0xfe, 0x00, 0xe4, 0x0a, 0x05, 0xf5, 0x0d, 0xc5, 0xfd, 0xf3, 0xf4,
  0xfb, 0xf4, 0xf4, 0xf7, 0x04, 0xf4, 0xfb, 0xf8, 0xfe, 0x00, 0xfe, 0xf6,
  0x02, 0x05, 0x02, 0xfa, 0xff, 0xfc, 0xed, 0x02, 0xf1, 0xff, 0x11, 0x03,
  0xf5, 0x00, 0xff, 0x09, 0xd8, 0x03, 0xfd, 0xed, 0x05, 0x02, 0x06, 0xf5,
  0xf4, 0x00, 0xfb, 0xff, 0x03, 0x02, 0x91, 0xfa, 0xfd, 0x0a, 0x02, 0x0f,
  0x01, 0xf9, 0x11, 0xe5, 0x04, 0xfa, 0x0c, 0x00, 0xf3, 0x01, 0xee, 0x09,
  0xed, 0x03, 0x06, 0x00, 0xd9, 0x0e, 0x15, 0x0a, 0x01, 0xfb, 0xf6, 0x07,
  0x05, 0x05, 0x01, 0xfb, 0x00, 0x10, 0x05, 0xfe, 0x08, 0xf5, 0x0b, 0x05,
  0xe7, 0xff, 0x03, 0x02, 0x03, 0x0d, 0x00, 0x05, 0x03, 0xf4, 0x01, 0xd4,
  0x00, 0x04, 0x02, 0x02, 0x06, 0x04, 0xfb, 0x03, 0x02, 0x0d, 0x23, 0x02,
  0xfc, 0x08, 0xf8, 0x02, 0x09, 0xf8, 0x1b, 0xfd, 0xf7, 0x06, 0x12, 0xfe,
  0x09, 0x08, 0xff, 0x01, 0x08, 0xfb, 0xfb, 0xff, 0x07, 0x14, 0x01, 0x05,
  0x04, 0xf2, 0xfa, 0xf8, 0x06, 0xf9, 0xf4, 0xf8, 0x02, 0x13, 0xf6, 0xff,
  0x16, 0xe2, 0x00, 0x06, 0x02, 0x0a, 0x09, 0x04, 0x01, 0xf7, 0x16, 0xfb,
  0xfb, 0xf8, 0x05, 0xf1, 0x00, 0xfc, 0x01, 0xff, 0x03, 0xfc, 0x08, 0x02,
  0x03, 0xf8, 0x00, 0x0a, 0xec, 0x05, 0xfa, 0x08, 0xfe, 0x04, 0x00, 0x03,
  0x03, 0x03, 0x00, 0xed, 0x04, 0x06, 0x02, 0xfd, 0x07, 0xfe, 0xf5, 0xfd,
  0x01, 0xfa, 0xfc, 0x07, 0x01, 0xf7, 0x07, 0x05, 0x01, 0x03, 0x02, 0xfb,
  0xfd, 0x05, 0x02, 0xfd, 0xf8, 0xfc, 0xfc, 0xfe, 0x00, 0x03, 0x02, 0xfd,
  0xfe, 0xfe, 0xfc, 0xfd, 0x0b, 0x03, 0x02, 0xf3, 0x04, 0x02, 0x02, 0xfc,
  0x03, 0xf7, 0xf9, 0x08, 0x00, 0x01, 0x09, 0x03, 0xfa, 0xff, 0xfd, 0x08,
  0xfc, 0x05, 0xe1, 0x03, 0x01, 0x01, 0x05, 0x00, 0xfd, 0x00, 0xf9, 0x00,
  0xff, 0x00, 0xf9, 0x0c, 0x01, 0xfc, 0x06, 0xfb, 0xfa, 0xf3, 0xf8, 0x00,
  0xfb, 0x10, 0x05, 0x07, 0xfc, 0xe1, 0x02, 0x07, 0xfc, 0x02, 0x00, 0xf8,
  0x02, 0x02, 0x02, 0x01, 0x03, 0x02, 0xfa, 0xf5, 0xfa, 0xfa, 0xf9, 0xfa,
  0x07, 0xf8, 0xfc, 0x03, 0x01, 0x06, 0x05, 0xf9, 0xfe, 0x06, 0x04, 0x05,
  0xfa, 0xfc, 0xfe, 0xfe, 0x0a, 0xdd, 0xff, 0x05, 0x06, 0xf9, 0x09, 0xf9,
  0xfc, 0x14, 0xf9, 0x04, 0xff, 0xf8, 0xfb, 0xf5, 0xff, 0xfa, 0xed, 0xf8,
  0x03, 0xf4, 0x04, 0x02, 0x00, 0x0b, 0x00, 0xfd, 0xfd, 0x00, 0xf6, 0x05,
  0x06, 0xfb, 0x04, 0xfe, 0xff, 0xe9, 0x09, 0xfd, 0xf3, 0xfe, 0x05, 0x0b,
  0xfa, 0xff, 0x00, 0xfb, 0xfd, 0xed, 0xfd, 0xff, 0xfa, 0x06, 0xf6, 0x02,
  0xfb, 0xf0, 0xf8, 0x02, 0x02, 0x02, 0xff, 0x0c, 0x0d, 0x01, 0xef, 0xfc,
  0xfb, 0xfc, 0x14, 0x07, 0x05, 0x0e, 0x0d, 0xfe, 0x10, 0x01, 0x09, 0x0e,
  0xfe, 0x24, 0x00, 0x1f, 0xfd, 0xf6, 0x06, 0xfb, 0x04, 0x17, 0xf0, 0x05,
  0x00, 0xf4, 0xfb, 0xff, 0x14, 0xf8, 0xff, 0x17, 0xf9, 0x0a, 0x07, 0x04,
  0xff, 0xfa, 0x05, 0xe9, 0x03, 0xff, 0xfd, 0xf6, 0x04, 0x04, 0xfd, 0x06,
  0x01, 0xf9, 0x0f, 0x01, 0xfe, 0x04, 0x01, 0xff, 0xfe, 0x00, 0xf0, 0x0f,
  0x0c, 0xfe, 0x08, 0xfe, 0x02, 0x08, 0x02, 0x09, 0x04, 0xff, 0x01, 0xfd,
  0xff, 0x04, 0xfe, 0xfc, 0x00, 0x00, 0xfe, 0x05, 0xff, 0x00, 0x0e, 0x04,
  0x02, 0xfc, 0x00, 0x01, 0x02, 0x0b, 0x06, 0x04, 0xfc, 0xfe, 0xf9, 0x02,
  0x04, 0xff, 0x07, 0x02, 0x01, 0x01, 0xfc, 0xfd, 0xf8, 0x05, 0xfb, 0xfa,
  0x02, 0xfc, 0xfc, 0x03, 0xfe, 0x04, 0xfc, 0x04, 0xfb, 0xfe, 0x02, 0xfa,
  0xff, 0xfb, 0xfe, 0x09, 0x1e, 0xe4, 0x0a, 0xf9, 0x0a, 0xdf, 0x08, 0x11,
  0xf8, 0xf9, 0xfd, 0x0f, 0x01, 0x04, 0xea, 0x18, 0xfb, 0xd6, 0xf3, 0x0a,
  0x02, 0x08, 0x0d, 0x07, 0x13, 0x16, 0xf9, 0x04, 0x08, 0x0a, 0xdc, 0xd8,
  0x07, 0x03, 0x05, 0xeb, 0x00, 0x1d, 0x1c, 0xfd, 0xf1, 0x00, 0x06, 0x03,
  0x03, 0xf9, 0xef, 0xeb, 0x05, 0xee, 0x04, 0x02, 0xf1, 0xfa, 0x1b, 0x09,
  0x0e, 0xed, 0xf3, 0x04, 0x09, 0x0a, 0xfd, 0x1d, 0xfc, 0xd7, 0x05, 0xfc,
  0x06, 0xf7, 0x00, 0x04, 0xf6, 0xfa, 0xf9, 0x03, 0xf8, 0x01, 0x05, 0x0b,
  0xee, 0xfc, 0xfe, 0xff, 0x04, 0xf9, 0xfa, 0x06, 0xfe, 0xff, 0xfd, 0xff,
  0x00, 0x04, 0xea, 0xfe, 0xfc, 0x08, 0x01, 0x00, 0xfc, 0x06, 0xfe, 0xfd,
  0x06, 0xfd, 0xfd, 0xfb, 0x01, 0x01, 0xfd, 0x01, 0x02, 0xf9, 0xfd, 0x05,
  0xfa, 0x12, 0x07, 0xf8, 0xfc, 0xfa, 0xfd, 0xfa, 0x03, 0x07, 0x00, 0x05,
  0x08, 0x03, 0xf8, 0xfa, 0xc7, 0x0d, 0xff, 0xf8, 0x05, 0x08, 0x0e, 0x03,
  0xee, 0xff, 0xdb, 0xfd, 0x00, 0xfe, 0xfe, 0x01, 0xfc, 0x1d, 0x0c, 0x01,
  0x09, 0xfe, 0x03, 0xda, 0xf2, 0x02, 0xfe, 0xff, 0xfa, 0xf9, 0x02, 0xff,
  0x03, 0x01, 0x08, 0xff, 0x07, 0x02, 0x03, 0x02, 0x03, 0x07, 0xe3, 0x02,
  0x03, 0xd4, 0xf7, 0x05, 0x02, 0xdf, 0xfb, 0xff, 0x03, 0x03, 0xfd, 0xfb,
  0x03, 0x81, 0xfe, 0x05, 0x03, 0x06, 0x33, 0xf9, 0x04, 0x03, 0x00, 0x00,
  0xfa, 0xf7, 0xfe, 0x02, 0xfe, 0x04, 0xff, 0xde, 0x01, 0x03, 0x01, 0xf3,
  0xfa, 0x07, 0x05, 0xfa, 0x00, 0x06, 0xf6, 0xf9, 0xff, 0x32, 0x04, 0x04,
  0x01, 0xeb, 0x00, 0xfe, 0xfd, 0xfe, 0xff, 0x06, 0xff, 0x05, 0x02, 0xf4,
  0x0c, 0x0c, 0x00, 0x02, 0x00, 0xfb, 0x03, 0xff, 0xff, 0x08, 0xe0, 0xfa,
  0xfb, 0x06, 0x04, 0xfd, 0xfd, 0x04, 0xf8, 0x06, 0x03, 0x00, 0xfe, 0xfc,
  0x02, 0x06, 0x00, 0xff, 0x02, 0xfa, 0xfb, 0x03, 0xfe, 0x01, 0xf3, 0xff,
  0x03, 0xfa, 0xff, 0xfe, 0x00, 0xf8, 0xfb, 0x01, 0xfd, 0x00, 0x04, 0x05,
  0xff, 0xfa, 0xf9, 0x01, 0x04, 0xfe, 0x00, 0xf7, 0x06, 0x01, 0xfe, 0x03,
  0x05, 0xff, 0x03, 0x02, 0xfc, 0x04, 0x03, 0x00, 0x08, 0xff, 0xfc, 0x03,
  0xfa, 0x02, 0x02, 0x07, 0xfc, 0x06, 0xff, 0xfb, 0xfb, 0xfc, 0xff, 0x06,
  0xfa, 0xfe, 0xff, 0xfb, 0xed, 0xfc, 0xff, 0xfb, 0x08, 0xfd, 0x0a, 0xff,
  0xf6, 0x04, 0xfe, 0xfa, 0x04, 0x01, 0xfc, 0xf7, 0x08, 0x00, 0xfe, 0x07,
  0xf7, 0xfb, 0x03, 0xf3, 0x00, 0xff, 0xe0, 0xfb, 0xfd, 0x07, 0xfa, 0xf8,
  0xfe, 0xff, 0xfb, 0x06, 0x00, 0xfe, 0xff, 0x0b, 0x00, 0x01, 0xf2, 0x03,
  0xff, 0xf8, 0x03, 0xff, 0x05, 0xfb, 0x04, 0xfd, 0x02, 0xfb, 0x03, 0xfe,
  0x07, 0x05, 0x02, 0xfb, 0x09, 0xfb, 0xfe, 0xfe, 0xf0, 0x09, 0x01, 0x09,
  0x00, 0xf7, 0xff, 0x0c, 0x03, 0x04, 0xf0, 0xfc, 0x02, 0xd3, 0xfc, 0xef,
  0x00, 0x03, 0x0c, 0xfa, 0xff, 0x06, 0xf8, 0x04, 0x01, 0xf3, 0xe6, 0xf5,
  0x07, 0xf9, 0x03, 0xd7, 0xfb, 0x05, 0x06, 0xfe, 0xff, 0x07, 0x05, 0x04,
  0x02, 0x00, 0xff, 0xff, 0x01, 0xf7, 0xfe, 0x08, 0x00, 0x00, 0xfe, 0xfb,
  0x07, 0xf7, 0x03, 0x04, 0x03, 0x04, 0x02, 0xfd, 0xf9, 0x05, 0x0e, 0x06,
  0x07, 0x09, 0xf9, 0xfd, 0xf8, 0xfd, 0x08, 0xf3, 0x13, 0x05, 0x06, 0xfe,
  0xfd, 0xfc, 0x00, 0x10, 0x03, 0x0c, 0x0b, 0x06, 0xfd, 0xea, 0x06, 0xfe,
  0x01, 0x10, 0xfb, 0x0b, 0xfd, 0x0a, 0xff, 0x02, 0x0f, 0xf8, 0xfc, 0xfe,
  0x03, 0xf1, 0xfd, 0xee, 0x08, 0xf9, 0xfe, 0x06, 0xf5, 0x00, 0xfe, 0xf6,
  0xfc, 0xf2, 0x01, 0x08, 0xfd, 0xf8, 0xf4, 0x03, 0x06, 0x01, 0xf8, 0xfa,
  0x01, 0xfd, 0x07, 0x03, 0x02, 0xfe, 0x01, 0xf4, 0x04, 0x06, 0x04, 0xfc,
  0xfa, 0x02, 0x0a, 0xfa, 0x06, 0x11, 0x04, 0xff, 0x01, 0x0a, 0x08, 0x00,
  0xf9, 0x01, 0xfd, 0xf7, 0x04, 0x08, 0xfe, 0xf9, 0x07, 0xfd, 0xfb, 0x0c,
  0xfe, 0xfe, 0x00, 0x02, 0x02, 0xfe, 0x00, 0xff, 0x03, 0xfe, 0x02, 0x05,
  0xff, 0x02, 0x02, 0x06, 0x02, 0xfa, 0xfa, 0xfd, 0x05, 0xfd, 0xf9, 0x09,
  0x08, 0x06, 0x07, 0x00, 0x00, 0x00, 0x00, 0x00, 0x26, 0xfd, 0xff, 0xff,
  0x04, 0x00, 0x00, 0x00, 0x00, 0x02, 0x00, 0x00, 0x32, 0xd4, 0xaf, 0x3d,
  0x62, 0x9d, 0x26, 0xbe, 0xd6, 0x2b, 0x9a, 0x3e, 0xe6, 0xed, 0xda, 0x3b,
  0x50, 0x92, 0x49, 0x3e, 0x5c, 0x8b, 0x58, 0x3e, 0x25, 0x27, 0x31, 0xbe,
  0xde, 0x6d, 0xac, 0xbe, 0x8a, 0x52, 0x80, 0x3e, 0xc9, 0xf3, 0x43, 0x3e,
  0xb7, 0xf5, 0xfc, 0x3e, 0x7b, 0x72, 0x45, 0x3e, 0xac, 0x39, 0x81, 0xbd,
  0xe1, 0x33, 0x28, 0x3d, 0x1e, 0x96, 0x64, 0xbe, 0x3d, 0x41, 0x14, 0xbe,
  0xe5, 0xca, 0xa4, 0xbe, 0x81, 0x8e, 0x1c, 0xbe, 0x95, 0x9d, 0xa1, 0x3e,
  0x7a, 0x4f, 0x48, 0x3e, 0x90, 0x0e, 0x9a, 0xbe, 0x49, 0x3d, 0x20, 0xbe,
  0xf1, 0xae, 0x21, 0x3e, 0xc6, 0x1c, 0x10, 0xbd, 0xe3, 0x4b, 0x45, 0xbe,
  0x4d, 0xaa, 0x81, 0xbc, 0xec, 0xb5, 0x13, 0xba, 0x00, 0xf3, 0x30, 0xba,
  0xcb, 0xe1, 0xbc, 0x3d, 0x42, 0x04, 0x42, 0xbd, 0xa0, 0xad, 0x67, 0x3e,
  0xbf, 0xa2, 0x82, 0x3e, 0xd0, 0xdc, 0x57, 0xbe, 0x55, 0x3d, 0x4f, 0xbe,
  0x6a, 0x63, 0xaa, 0x3d, 0x88, 0xe7, 0x05, 0xbd, 0x18, 0xc4, 0xe4, 0xba,
  0x17, 0x41, 0x8e, 0xbe, 0x74, 0x2b, 0x0f, 0xbb, 0x59, 0x88, 0x53, 0x3e,
  0xec, 0x85, 0x20, 0xba, 0xc8, 0x97, 0x3d, 0xba, 0xc7, 0x93, 0xba, 0x3d,
  0xcd, 0x48, 0xe0, 0xbd, 0xc3, 0x3c, 0xb8, 0xbe, 0x5c, 0xb5, 0xad, 0xbe,
  0x9a, 0xba, 0xa5, 0xbd, 0x15, 0x42, 0x51, 0xbd, 0x45, 0x4f, 0x83, 0x3d,
  0x39, 0xd3, 0x7f, 0xbd, 0x8e, 0x25, 0xe5, 0xbd, 0x63, 0x86, 0xf5, 0x3d,
  0xfd, 0x91, 0x4a, 0x3e, 0xa0, 0x2f, 0xcf, 0x3e, 0x6c, 0x57, 0x71, 0xbe,
  0x44, 0x09, 0x55, 0xbe, 0x4d, 0x15, 0x7c, 0x3b, 0x1c, 0x6f, 0xba, 0x3b,
  0x0a, 0x7b, 0x41, 0x3e, 0x97, 0x24, 0x50, 0x3e, 0x6f, 0x92, 0xbf, 0x3e,
  0x87, 0x77, 0x07, 0x3e, 0x55, 0xf1, 0x28, 0x3f, 0xfd, 0x5f, 0x7e, 0x3e,
  0xa7, 0xe1, 0xfa, 0x3c, 0x13, 0x39, 0x36, 0x3d, 0x50, 0x90, 0xbe, 0x3e,
  0xf6, 0xa5, 0x07, 0x3f, 0xeb, 0x02, 0x90, 0x3d, 0xd9, 0x09, 0xb1, 0xbd,
  0xfd, 0x68, 0xa5, 0x3c, 0x49, 0xc1, 0x53, 0xbb, 0x31, 0x26, 0x03, 0xbe,
  0xb3, 0x37, 0x58, 0xbe, 0x7e, 0x9b, 0x3d, 0x3e, 0xd4, 0xd7, 0x06, 0xbe,
  0xe5, 0x1a, 0x03, 0x3d, 0xe5, 0x72, 0x32, 0xbe, 0xa8, 0x3d, 0x83, 0xbd,
  0xb5, 0x4f, 0xde, 0xbc, 0x3c, 0xc0, 0x8a, 0xb9, 0x7b, 0xd9, 0xb8, 0xba,
  0x3a, 0xf1, 0xa3, 0x3b, 0x1a, 0xfc, 0xd5, 0x3e, 0x80, 0xab, 0x48, 0x3d,
  0x95, 0x9e, 0x8e, 0x3d, 0x42, 0x53, 0x34, 0x3e, 0xaa, 0xc4, 0x83, 0x3e,
  0x2a, 0x73, 0x9b, 0xbc, 0x51, 0x38, 0xd0, 0x3c, 0xf2, 0xb4, 0x3b, 0x3e,
  0x5b, 0x65, 0x0c, 0x3f, 0xa4, 0x4c, 0x67, 0x3e, 0xde, 0xbd, 0x66, 0x3e,
  0x69, 0x04, 0x30, 0x3b, 0x70, 0x5d, 0xec, 0xbe, 0x8a, 0xa8, 0xd9, 0xbb,
  0x9e, 0x6e, 0x16, 0xbb, 0xe4, 0xd2, 0x95, 0x3e, 0x38, 0xb9, 0xcb, 0x3d,
  0x48, 0xbd, 0xea, 0xbb, 0x54, 0xbe, 0xd5, 0xbb, 0xfc, 0x59, 0x0a, 0xbc,
  0xa0, 0xaa, 0x0a, 0xbc, 0xbc, 0x0f, 0x2b, 0xbc, 0xbf, 0xfe, 0x48, 0xbc,
  0x8f, 0x01, 0xda, 0xbe, 0x7b, 0x6f, 0xf3, 0xbd, 0x40, 0x5e, 0xac, 0x3e,
  0x40, 0xb5, 0xbe, 0x3e, 0x9c, 0xec, 0x22, 0x3a, 0xe6, 0x76, 0x1f, 0xbb,
  0xc8, 0xdd, 0x7a, 0x3a, 0x39, 0xde, 0x69, 0x3c, 0x99, 0xb0, 0x2d, 0xbd,
  0x79, 0x73, 0x46, 0xbd, 0xa3, 0xd9, 0xb7, 0x3c, 0xa8, 0xfe, 0xde, 0xbe,
  0xe6, 0x2d, 0xe5, 0x3d, 0x2d, 0x8c, 0x83, 0x3e, 0xaa, 0xa1, 0x0b, 0x3d,
  0x50, 0x0c, 0xa9, 0x3d, 0xd9, 0x7c, 0xdb, 0xbd, 0xe7, 0x72, 0x6f, 0xbb,
  0x70, 0xa9, 0x86, 0x3e, 0xf3, 0x57, 0x1d, 0x3f, 0x1c, 0x51, 0xf3, 0x3c,
  0xc0, 0xe0, 0x2d, 0xbe, 0x00, 0x00, 0x00, 0x00, 0x36, 0xff, 0xff, 0xff,
  0x04, 0x00, 0x00, 0x00, 0x10, 0x00, 0x00, 0x00, 0x3f, 0x65, 0xaf, 0x3b,
  0x12, 0x60, 0xcb, 0x3e, 0x44, 0xa1, 0xa5, 0x3e, 0x29, 0x13, 0x48, 0x3f,
  0x00, 0x00, 0x00, 0x00, 0x56, 0xff, 0xff, 0xff, 0x04, 0x00, 0x00, 0x00,
  0x30, 0x00, 0x00, 0x00, 0xd4, 0xc5, 0x6b, 0x3e, 0xb7, 0x35, 0x25, 0x3f,
  0x3e, 0x28, 0x47, 0x3d, 0x00, 0x00, 0x00, 0x00, 0xf6, 0x4e, 0x4b, 0x3e,
  0x12, 0xea, 0x2f, 0xbd, 0x79, 0xcf, 0xf6, 0xbe, 0xca, 0x12, 0x8a, 0xbe,
  0x9e, 0x2a, 0xf3, 0x3e, 0x87, 0x48, 0xfe, 0xbd, 0x69, 0x65, 0x02, 0x3f,
  0x98, 0xdb, 0xd1, 0x3d, 0x00, 0x00, 0x00, 0x00, 0x96, 0xff, 0xff, 0xff,
  0x04, 0x00, 0x00, 0x00, 0x50, 0x00, 0x00, 0x00, 0xf1, 0x65, 0xe3, 0x3d,
  0x67, 0x0d, 0x6c, 0x3d, 0x97, 0x7b, 0x34, 0x3e, 0x59, 0x5d, 0x0f, 0x3d,
  0xf9, 0xbe, 0x4b, 0xbc, 0x96, 0x59, 0x08, 0xbe, 0x05, 0xc1, 0x06, 0x3e,
  0xd9, 0x10, 0x11, 0x3e, 0x0c, 0xb6, 0x6d, 0x3e, 0x3b, 0x12, 0x8a, 0xbd,
  0x25, 0x22, 0x79, 0xbe, 0x84, 0xf9, 0xcd, 0x3e, 0x01, 0x8c, 0x8d, 0x3d,
  0x34, 0x56, 0x08, 0xbe, 0xc0, 0x61, 0x3c, 0xbe, 0x60, 0xb1, 0xaa, 0x3e,
  0x73, 0xe9, 0xbc, 0x3e, 0x67, 0x55, 0x52, 0xbe, 0x92, 0x54, 0x96, 0x3e,
  0x9e, 0x32, 0xcf, 0x3e, 0x00, 0x00, 0x00, 0x00, 0x00, 0x00, 0x00, 0x00,
  0x00, 0x00, 0x00, 0x00, 0x00, 0x00, 0x06, 0x00, 0x08, 0x00, 0x04, 0x00,
  0x06, 0x00, 0x00, 0x00, 0x04, 0x00, 0x00, 0x00, 0x00, 0x01, 0x00, 0x00,
  0x7a, 0xf3, 0xa1, 0xbd, 0x9e, 0xe8, 0xa4, 0x3e, 0x17, 0x9a, 0xfb, 0xbd,
  0xbb, 0x6e, 0x31, 0xbd, 0x7a, 0x01, 0x17, 0x3e, 0x5d, 0xfd, 0x1c, 0x3e,
  0x0f, 0x4c, 0xa0, 0xbc, 0x0d, 0xcf, 0x97, 0xbe, 0x23, 0x9c, 0x9d, 0x3d,
  0xd7, 0x06, 0x5e, 0xbc, 0x2a, 0xea, 0x07, 0x3d, 0xbe, 0x90, 0x62, 0xbe,
  0x18, 0xe0, 0x26, 0xbe, 0x1d, 0xae, 0xa2, 0xbc, 0xdf, 0x4d, 0xbb, 0xbe,
  0xb8, 0x26, 0x78, 0xbe, 0xe8, 0xe5, 0x89, 0x3e, 0xba, 0x22, 0x93, 0xbe,
  0x9a, 0x71, 0xd4, 0xbd, 0x81, 0xc9, 0x77, 0xbe, 0x82, 0x3d, 0xb1, 0xbc,
  0x58, 0x63, 0xe7, 0xbe, 0xf4, 0x48, 0x8a, 0xbe, 0xaa, 0x4e, 0x1a, 0xbd,
  0x2c, 0x43, 0x81, 0xbe, 0x47, 0x89, 0xc1, 0xbe, 0xae, 0x82, 0xe3, 0x3d,
  0xf8, 0xe5, 0x61, 0xbe, 0x32, 0x61, 0x97, 0xbd, 0x2a, 0x77, 0xf4, 0xbd,
  0x03, 0x05, 0x80, 0xbc, 0xbe, 0x79, 0x7d, 0x3e, 0xec, 0xa5, 0xbd, 0xbd,
  0x1f, 0x16, 0xef, 0xbe, 0x95, 0x2d, 0x7a, 0xbe, 0xbb, 0x95, 0x81, 0xbe,
  0x38, 0x7d, 0x04, 0x3c, 0xac, 0xd3, 0xa4, 0x3c, 0xf6, 0xc2, 0x04, 0xbe,
  0x03, 0x4b, 0x97, 0x3d, 0x88, 0xad, 0xae, 0xbc, 0xac, 0x84, 0x96, 0xbe,
  0x12, 0xb7, 0xdb, 0xbd, 0x7e, 0x24, 0xbd, 0xbe, 0x3e, 0x1e, 0xd2, 0xbc,
  0x6d, 0x3f, 0xb7, 0x3d, 0x44, 0x59, 0x85, 0x3e, 0xc3, 0x2c, 0x1f, 0xbf,
  0x3c, 0x70, 0x85, 0xbd, 0x70, 0x50, 0xc7, 0xbd, 0xf4, 0x84, 0xb5, 0xbd,
  0x76, 0x7a, 0xf8, 0xbd, 0xb9, 0x93, 0x26, 0xbe, 0xf1, 0x5c, 0x1b, 0x3c,
  0x33, 0xc1, 0xa3, 0xbe, 0x7d, 0x90, 0xfb, 0xbc, 0xa7, 0xf3, 0xfb, 0xbd,
  0xff, 0xf8, 0xf0, 0xbd, 0x47, 0x54, 0xe0, 0xbe, 0x1a, 0xac, 0x18, 0x3e,
  0x69, 0x0b, 0xc4, 0x3d, 0xe0, 0xc8, 0xbe, 0x3d, 0x51, 0x87, 0x17, 0x3e,
  0x02, 0xf7, 0x00, 0xbe, 0x00, 0x00, 0x00, 0x00, 0x00, 0x00, 0x00, 0x00,
  0x00, 0x00, 0x00, 0x00, 0xd0, 0xf9, 0xff, 0xff, 0x00, 0x00, 0x00, 0x00,
  0x00, 0x00, 0x00, 0x00, 0x00, 0x00, 0x00, 0x00, 0xe0, 0xf9, 0xff, 0xff,
  0x00, 0x00, 0x00, 0x00, 0x00, 0x00, 0x00, 0x00, 0x0f, 0x00, 0x00, 0x00,
  0x4d, 0x4c, 0x49, 0x52, 0x20, 0x43, 0x6f, 0x6e, 0x76, 0x65, 0x72, 0x74,
  0x65, 0x64, 0x2e, 0x00, 0x01, 0x00, 0x00, 0x00, 0x14, 0x00, 0x00, 0x00,
  0x00, 0x00, 0x0e, 0x00, 0x18, 0x00, 0x04, 0x00, 0x08, 0x00, 0x0c, 0x00,
  0x10, 0x00, 0x14, 0x00, 0x0e, 0x00, 0x00, 0x00, 0x38, 0x01, 0x00, 0x00,
  0x2c, 0x01, 0x00, 0x00, 0x20, 0x01, 0x00, 0x00, 0x14, 0x00, 0x00, 0x00,
  0x04, 0x00, 0x00, 0x00, 0x04, 0x00, 0x00, 0x00, 0x6d, 0x61, 0x69, 0x6e,
  0x00, 0x00, 0x00, 0x00, 0x04, 0x00, 0x00, 0x00, 0xc8, 0x00, 0x00, 0x00,
  0x80, 0x00, 0x00, 0x00, 0x38, 0x00, 0x00, 0x00, 0x04, 0x00, 0x00, 0x00,
  0x9a, 0xff, 0xff, 0xff, 0x00, 0x00, 0x00, 0x08, 0x18, 0x00, 0x00, 0x00,
  0x0c, 0x00, 0x00, 0x00, 0x04, 0x00, 0x00, 0x00, 0x64, 0xfa, 0xff, 0xff,
  0x01, 0x00, 0x00, 0x00, 0x0c, 0x00, 0x00, 0x00, 0x03, 0x00, 0x00, 0x00,
  0x0b, 0x00, 0x00, 0x00, 0x08, 0x00, 0x00, 0x00, 0x04, 0x00, 0x00, 0x00,
  0xca, 0xff, 0xff, 0xff, 0x00, 0x00, 0x00, 0x08, 0x1c, 0x00, 0x00, 0x00,
  0x10, 0x00, 0x00, 0x00, 0x04, 0x00, 0x00, 0x00, 0x76, 0xff, 0xff, 0xff,
  0x00, 0x00, 0x00, 0x01, 0x01, 0x00, 0x00, 0x00, 0x0b, 0x00, 0x00, 0x00,
  0x03, 0x00, 0x00, 0x00, 0x0a, 0x00, 0x00, 0x00, 0x07, 0x00, 0x00, 0x00,
  0x03, 0x00, 0x00, 0x00, 0x00, 0x00, 0x0e, 0x00, 0x14, 0x00, 0x00, 0x00,
  0x08, 0x00, 0x0c, 0x00, 0x07, 0x00, 0x10, 0x00, 0x0e, 0x00, 0x00, 0x00,
  0x00, 0x00, 0x00, 0x08, 0x1c, 0x00, 0x00, 0x00, 0x10, 0x00, 0x00, 0x00,
  0x04, 0x00, 0x00, 0x00, 0xba, 0xff, 0xff, 0xff, 0x00, 0x00, 0x00, 0x01,
  0x01, 0x00, 0x00, 0x00, 0x0a, 0x00, 0x00, 0x00, 0x03, 0x00, 0x00, 0x00,
  0x09, 0x00, 0x00, 0x00, 0x06, 0x00, 0x00, 0x00, 0x02, 0x00, 0x00, 0x00,
  0x00, 0x00, 0x0e, 0x00, 0x16, 0x00, 0x00, 0x00, 0x08, 0x00, 0x0c, 0x00,
  0x07, 0x00, 0x10, 0x00, 0x0e, 0x00, 0x00, 0x00, 0x00, 0x00, 0x00, 0x08,
  0x24, 0x00, 0x00, 0x00, 0x18, 0x00, 0x00, 0x00, 0x0c, 0x00, 0x00, 0x00,
  0x00, 0x00, 0x06, 0x00, 0x08, 0x00, 0x07, 0x00, 0x06, 0x00, 0x00, 0x00,
  0x00, 0x00, 0x00, 0x01, 0x01, 0x00, 0x00, 0x00, 0x09, 0x00, 0x00, 0x00,
  0x03, 0x00, 0x00, 0x00, 0x00, 0x00, 0x00, 0x00, 0x05, 0x00, 0x00, 0x00,
  0x01, 0x00, 0x00, 0x00, 0x01, 0x00, 0x00, 0x00, 0x0c, 0x00, 0x00, 0x00,
  0x01, 0x00, 0x00, 0x00, 0x00, 0x00, 0x00, 0x00, 0x0d, 0x00, 0x00, 0x00,
  0x84, 0x04, 0x00, 0x00, 0x14, 0x04, 0x00, 0x00, 0xa8, 0x03, 0x00, 0x00,
  0x4c, 0x03, 0x00, 0x00, 0xf0, 0x02, 0x00, 0x00, 0xac, 0x02, 0x00, 0x00,
  0x38, 0x02, 0x00, 0x00, 0xe0, 0x01, 0x00, 0x00, 0x98, 0x01, 0x00, 0x00,
  0x2c, 0x01, 0x00, 0x00, 0xbc, 0x00, 0x00, 0x00, 0x4c, 0x00, 0x00, 0x00,
  0x04, 0x00, 0x00, 0x00, 0xc4, 0xfb, 0xff, 0xff, 0x34, 0x00, 0x00, 0x00,
  0x0d, 0x00, 0x00, 0x00, 0x1c, 0x00, 0x00, 0x00, 0x14, 0x00, 0x00, 0x00,
  0x04, 0x00, 0x00, 0x00, 0x02, 0x00, 0x00, 0x00, 0xff, 0xff, 0xff, 0xff,
  0x04, 0x00, 0x00, 0x00, 0xb0, 0xfb, 0xff, 0xff, 0x08, 0x00, 0x00, 0x00,
  0x49, 0x64, 0x65, 0x6e, 0x74, 0x69, 0x74, 0x79, 0x00, 0x00, 0x00, 0x00,
  0x02, 0x00, 0x00, 0x00, 0x01, 0x00, 0x00, 0x00, 0x04, 0x00, 0x00, 0x00,
  0x08, 0xfc, 0xff, 0xff, 0x5c, 0x00, 0x00, 0x00, 0x0c, 0x00, 0x00, 0x00,
  0x1c, 0x00, 0x00, 0x00, 0x14, 0x00, 0x00, 0x00, 0x04, 0x00, 0x00, 0x00,
  0x02, 0x00, 0x00, 0x00, 0xff, 0xff, 0xff, 0xff, 0x0c, 0x00, 0x00, 0x00,
  0xf4, 0xfb, 0xff, 0xff, 0x32, 0x00, 0x00, 0x00, 0x73, 0x65, 0x71, 0x75,
  0x65, 0x6e, 0x74, 0x69, 0x61, 0x6c, 0x2f, 0x64, 0x65, 0x6e, 0x73, 0x65,
  0x5f, 0x32, 0x2f, 0x52, 0x65, 0x6c, 0x75, 0x3b, 0x73, 0x65, 0x71, 0x75,
  0x65, 0x6e, 0x74, 0x69, 0x61, 0x6c, 0x2f, 0x64, 0x65, 0x6e, 0x73, 0x65,
  0x5f, 0x32, 0x2f, 0x42, 0x69, 0x61, 0x73, 0x41, 0x64, 0x64, 0x00, 0x00,
  0x02, 0x00, 0x00, 0x00, 0x01, 0x00, 0x00, 0x00, 0x0c, 0x00, 0x00, 0x00,
  0x74, 0xfc, 0xff, 0xff, 0x5c, 0x00, 0x00, 0x00, 0x0b, 0x00, 0x00, 0x00,
  0x1c, 0x00, 0x00, 0x00, 0x14, 0x00, 0x00, 0x00, 0x04, 0x00, 0x00, 0x00,
  0x02, 0x00, 0x00, 0x00, 0xff, 0xff, 0xff, 0xff, 0x14, 0x00, 0x00, 0x00,
  0x60, 0xfc, 0xff, 0xff, 0x32, 0x00, 0x00, 0x00, 0x73, 0x65, 0x71, 0x75,
  0x65, 0x6e, 0x74, 0x69, 0x61, 0x6c, 0x2f, 0x64, 0x65, 0x6e, 0x73, 0x65,
  0x5f, 0x31, 0x2f, 0x52, 0x65, 0x6c, 0x75, 0x3b, 0x73, 0x65, 0x71, 0x75,
  0x65, 0x6e, 0x74, 0x69, 0x61, 0x6c, 0x2f, 0x64, 0x65, 0x6e, 0x73, 0x65,
  0x5f, 0x31, 0x2f, 0x42, 0x69, 0x61, 0x73, 0x41, 0x64, 0x64, 0x00, 0x00,
  0x02, 0x00, 0x00, 0x00, 0x01, 0x00, 0x00, 0x00, 0x14, 0x00, 0x00, 0x00,
  0xe0, 0xfc, 0xff, 0xff, 0x58, 0x00, 0x00, 0x00, 0x0a, 0x00, 0x00, 0x00,
  0x1c, 0x00, 0x00, 0x00, 0x14, 0x00, 0x00, 0x00, 0x04, 0x00, 0x00, 0x00,
  0x02, 0x00, 0x00, 0x00, 0xff, 0xff, 0xff, 0xff, 0x40, 0x00, 0x00, 0x00,
  0xcc, 0xfc, 0xff, 0xff, 0x2e, 0x00, 0x00, 0x00, 0x73, 0x65, 0x71, 0x75,
  0x65, 0x6e, 0x74, 0x69, 0x61, 0x6c, 0x2f, 0x64, 0x65, 0x6e, 0x73, 0x65,
  0x2f, 0x52, 0x65, 0x6c, 0x75, 0x3b, 0x73, 0x65, 0x71, 0x75, 0x65, 0x6e,
  0x74, 0x69, 0x61, 0x6c, 0x2f, 0x64, 0x65, 0x6e, 0x73, 0x65, 0x2f, 0x42,
  0x69, 0x61, 0x73, 0x41, 0x64, 0x64, 0x00, 0x00, 0x02, 0x00, 0x00, 0x00,
  0x01, 0x00, 0x00, 0x00, 0x40, 0x00, 0x00, 0x00, 0xae, 0xfd, 0xff, 0xff,
  0x34, 0x00, 0x00, 0x00, 0x09, 0x00, 0x00, 0x00, 0x0c, 0x00, 0x00, 0x00,
  0x04, 0x00, 0x00, 0x00, 0x24, 0xfd, 0xff, 0xff, 0x19, 0x00, 0x00, 0x00,
  0x73, 0x65, 0x71, 0x75, 0x65, 0x6e, 0x74, 0x69, 0x61, 0x6c, 0x2f, 0x64,
  0x65, 0x6e, 0x73, 0x65, 0x5f, 0x33, 0x2f, 0x4d, 0x61, 0x74, 0x4d, 0x75,
  0x6c, 0x00, 0x00, 0x00, 0x02, 0x00, 0x00, 0x00, 0x04, 0x00, 0x00, 0x00,
  0x0c, 0x00, 0x00, 0x00, 0xf2, 0xfd, 0xff, 0xff, 0x34, 0x00, 0x00, 0x00,
  0x08, 0x00, 0x00, 0x00, 0x0c, 0x00, 0x00, 0x00, 0x04, 0x00, 0x00, 0x00,
  0x68, 0xfd, 0xff, 0xff, 0x19, 0x00, 0x00, 0x00, 0x73, 0x65, 0x71, 0x75,
  0x65, 0x6e, 0x74, 0x69, 0x61, 0x6c, 0x2f, 0x64, 0x65, 0x6e, 0x73, 0x65,
  0x5f, 0x32, 0x2f, 0x4d, 0x61, 0x74, 0x4d, 0x75, 0x6c, 0x00, 0x00, 0x00,
  0x02, 0x00, 0x00, 0x00, 0x0c, 0x00, 0x00, 0x00, 0x14, 0x00, 0x00, 0x00,
  0x00, 0x00, 0x0e, 0x00, 0x18, 0x00, 0x08, 0x00, 0x07, 0x00, 0x0c, 0x00,
  0x10, 0x00, 0x14, 0x00, 0x0e, 0x00, 0x00, 0x00, 0x00, 0x00, 0x00, 0x09,
  0x5c, 0x00, 0x00, 0x00, 0x07, 0x00, 0x00, 0x00, 0x34, 0x00, 0x00, 0x00,
  0x10, 0x00, 0x00, 0x00, 0x0c, 0x00, 0x0c, 0x00, 0x00, 0x00, 0x00, 0x00,
  0x04, 0x00, 0x08, 0x00, 0x0c, 0x00, 0x00, 0x00, 0x14, 0x00, 0x00, 0x00,
  0x04, 0x00, 0x00, 0x00, 0x01, 0x00, 0x00, 0x00, 0x00, 0x00, 0x00, 0x00,
  0x00, 0x00, 0x00, 0x00, 0x01, 0x00, 0x00, 0x00, 0x9c, 0x1c, 0x19, 0x3d,
  0x19, 0x00, 0x00, 0x00, 0x73, 0x65, 0x71, 0x75, 0x65, 0x6e, 0x74, 0x69,
  0x61, 0x6c, 0x2f, 0x64, 0x65, 0x6e, 0x73, 0x65, 0x5f, 0x31, 0x2f, 0x4d,
  0x61, 0x74, 0x4d, 0x75, 0x6c, 0x00, 0x00, 0x00, 0x02, 0x00, 0x00, 0x00,
  0x14, 0x00, 0x00, 0x00, 0x40, 0x00, 0x00, 0x00, 0xb6, 0xfe, 0xff, 0xff,
  0x30, 0x00, 0x00, 0x00, 0x06, 0x00, 0x00, 0x00, 0x0c, 0x00, 0x00, 0x00,
  0x04, 0x00, 0x00, 0x00, 0x2c, 0xfe, 0xff, 0xff, 0x17, 0x00, 0x00, 0x00,
  0x73, 0x65, 0x71, 0x75, 0x65, 0x6e, 0x74, 0x69, 0x61, 0x6c, 0x2f, 0x64,
  0x65, 0x6e, 0x73, 0x65, 0x2f, 0x4d, 0x61, 0x74, 0x4d, 0x75, 0x6c, 0x00,
  0x02, 0x00, 0x00, 0x00, 0x40, 0x00, 0x00, 0x00, 0x02, 0x00, 0x00, 0x00,
  0xf6, 0xfe, 0xff, 0xff, 0x4c, 0x00, 0x00, 0x00, 0x05, 0x00, 0x00, 0x00,
  0x0c, 0x00, 0x00, 0x00, 0x04, 0x00, 0x00, 0x00, 0x6c, 0xfe, 0xff, 0xff,
  0x32, 0x00, 0x00, 0x00, 0x73, 0x65, 0x71, 0x75, 0x65, 0x6e, 0x74, 0x69,
  0x61, 0x6c, 0x2f, 0x64, 0x65, 0x6e, 0x73, 0x65, 0x5f, 0x33, 0x2f, 0x42,
  0x69, 0x61, 0x73, 0x41, 0x64, 0x64, 0x2f, 0x52, 0x65, 0x61, 0x64, 0x56,
  0x61, 0x72, 0x69, 0x61, 0x62, 0x6c, 0x65, 0x4f, 0x70, 0x2f, 0x72, 0x65,
  0x73, 0x6f, 0x75, 0x72, 0x63, 0x65, 0x00, 0x00, 0x01, 0x00, 0x00, 0x00,
  0x04, 0x00, 0x00, 0x00, 0x4e, 0xff, 0xff, 0xff, 0x4c, 0x00, 0x00, 0x00,
  0x04, 0x00, 0x00, 0x00, 0x0c, 0x00, 0x00, 0x00, 0x04, 0x00, 0x00, 0x00,
  0xc4, 0xfe, 0xff, 0xff, 0x32, 0x00, 0x00, 0x00, 0x73, 0x65, 0x71, 0x75,
  0x65, 0x6e, 0x74, 0x69, 0x61, 0x6c, 0x2f, 0x64, 0x65, 0x6e, 0x73, 0x65,
  0x5f, 0x32, 0x2f, 0x42, 0x69, 0x61, 0x73, 0x41, 0x64, 0x64, 0x2f, 0x52,
  0x65, 0x61, 0x64, 0x56, 0x61, 0x72, 0x69, 0x61, 0x62, 0x6c, 0x65, 0x4f,
  0x70, 0x2f, 0x72, 0x65, 0x73, 0x6f, 0x75, 0x72, 0x63, 0x65, 0x00, 0x00,
  0x01, 0x00, 0x00, 0x00, 0x0c, 0x00, 0x00, 0x00, 0xa6, 0xff, 0xff, 0xff,
  0x4c, 0x00, 0x00, 0x00, 0x03, 0x00, 0x00, 0x00, 0x0c, 0x00, 0x00, 0x00,
  0x04, 0x00, 0x00, 0x00, 0x1c, 0xff, 0xff, 0xff, 0x32, 0x00, 0x00, 0x00,
  0x73, 0x65, 0x71, 0x75, 0x65, 0x6e, 0x74, 0x69, 0x61, 0x6c, 0x2f, 0x64,
  0x65, 0x6e, 0x73, 0x65, 0x5f, 0x31, 0x2f, 0x42, 0x69, 0x61, 0x73, 0x41,
  0x64, 0x64, 0x2f, 0x52, 0x65, 0x61, 0x64, 0x56, 0x61, 0x72, 0x69, 0x61,
  0x62, 0x6c, 0x65, 0x4f, 0x70, 0x2f, 0x72, 0x65, 0x73, 0x6f, 0x75, 0x72,
  0x63, 0x65, 0x00, 0x00, 0x01, 0x00, 0x00, 0x00, 0x14, 0x00, 0x00, 0x00,
  0x00, 0x00, 0x0e, 0x00, 0x14, 0x00, 0x04, 0x00, 0x00, 0x00, 0x08, 0x00,
  0x0c, 0x00, 0x10, 0x00, 0x0e, 0x00, 0x00, 0x00, 0x4c, 0x00, 0x00, 0x00,
  0x02, 0x00, 0x00, 0x00, 0x0c, 0x00, 0x00, 0x00, 0x04, 0x00, 0x00, 0x00,
  0x84, 0xff, 0xff, 0xff, 0x30, 0x00, 0x00, 0x00, 0x73, 0x65, 0x71, 0x75,
  0x65, 0x6e, 0x74, 0x69, 0x61, 0x6c, 0x2f, 0x64, 0x65, 0x6e, 0x73, 0x65,
  0x2f, 0x42, 0x69, 0x61, 0x73, 0x41, 0x64, 0x64, 0x2f, 0x52, 0x65, 0x61,
  0x64, 0x56, 0x61, 0x72, 0x69, 0x61, 0x62, 0x6c, 0x65, 0x4f, 0x70, 0x2f,
  0x72, 0x65, 0x73, 0x6f, 0x75, 0x72, 0x63, 0x65, 0x00, 0x00, 0x00, 0x00,
  0x01, 0x00, 0x00, 0x00, 0x40, 0x00, 0x00, 0x00, 0x14, 0x00, 0x18, 0x00,
  0x04, 0x00, 0x00, 0x00, 0x08, 0x00, 0x0c, 0x00, 0x10, 0x00, 0x00, 0x00,
  0x00, 0x00, 0x14, 0x00, 0x14, 0x00, 0x00, 0x00, 0x38, 0x00, 0x00, 0x00,
  0x01, 0x00, 0x00, 0x00, 0x20, 0x00, 0x00, 0x00, 0x18, 0x00, 0x00, 0x00,
  0x04, 0x00, 0x00, 0x00, 0x02, 0x00, 0x00, 0x00, 0xff, 0xff, 0xff, 0xff,
  0x02, 0x00, 0x00, 0x00, 0x04, 0x00, 0x04, 0x00, 0x04, 0x00, 0x00, 0x00,
  0x0b, 0x00, 0x00, 0x00, 0x64, 0x65, 0x6e, 0x73, 0x65, 0x5f, 0x69, 0x6e,
  0x70, 0x75, 0x74, 0x00, 0x02, 0x00, 0x00, 0x00, 0x01, 0x00, 0x00, 0x00,
  0x02, 0x00, 0x00, 0x00, 0x01, 0x00, 0x00, 0x00, 0x10, 0x00, 0x00, 0x00,
  0x00, 0x00, 0x0a, 0x00, 0x0c, 0x00, 0x07, 0x00, 0x00, 0x00, 0x08, 0x00,
  0x0a, 0x00, 0x00, 0x00, 0x00, 0x00, 0x00, 0x09, 0x03, 0x00, 0x00, 0x00
 
};

#endif //VENTI_MODEL_H